<unk>	0
<s>	0
</s>	0
<0x00>	0
<0x01>	0
<0x02>	0
<0x03>	0
<0x04>	0
<0x05>	0
<0x06>	0
<0x07>	0
<0x08>	0
<0x09>	0
<0x0A>	0
<0x0B>	0
<0x0C>	0
<0x0D>	0
<0x0E>	0
<0x0F>	0
<0x10>	0
<0x11>	0
<0x12>	0
<0x13>	0
<0x14>	0
<0x15>	0
<0x16>	0
<0x17>	0
<0x18>	0
<0x19>	0
<0x1A>	0
<0x1B>	0
<0x1C>	0
<0x1D>	0
<0x1E>	0
<0x1F>	0
<0x20>	0
<0x21>	0
<0x22>	0
<0x23>	0
<0x24>	0
<0x25>	0
<0x26>	0
<0x27>	0
<0x28>	0
<0x29>	0
<0x2A>	0
<0x2B>	0
<0x2C>	0
<0x2D>	0
<0x2E>	0
<0x2F>	0
<0x30>	0
<0x31>	0
<0x32>	0
<0x33>	0
<0x34>	0
<0x35>	0
<0x36>	0
<0x37>	0
<0x38>	0
<0x39>	0
<0x3A>	0
<0x3B>	0
<0x3C>	0
<0x3D>	0
<0x3E>	0
<0x3F>	0
<0x40>	0
<0x41>	0
<0x42>	0
<0x43>	0
<0x44>	0
<0x45>	0
<0x46>	0
<0x47>	0
<0x48>	0
<0x49>	0
<0x4A>	0
<0x4B>	0
<0x4C>	0
<0x4D>	0
<0x4E>	0
<0x4F>	0
<0x50>	0
<0x51>	0
<0x52>	0
<0x53>	0
<0x54>	0
<0x55>	0
<0x56>	0
<0x57>	0
<0x58>	0
<0x59>	0
<0x5A>	0
<0x5B>	0
<0x5C>	0
<0x5D>	0
<0x5E>	0
<0x5F>	0
<0x60>	0
<0x61>	0
<0x62>	0
<0x63>	0
<0x64>	0
<0x65>	0
<0x66>	0
<0x67>	0
<0x68>	0
<0x69>	0
<0x6A>	0
<0x6B>	0
<0x6C>	0
<0x6D>	0
<0x6E>	0
<0x6F>	0
<0x70>	0
<0x71>	0
<0x72>	0
<0x73>	0
<0x74>	0
<0x75>	0
<0x76>	0
<0x77>	0
<0x78>	0
<0x79>	0
<0x7A>	0
<0x7B>	0
<0x7C>	0
<0x7D>	0
<0x7E>	0
<0x7F>	0
<0x80>	0
<0x81>	0
<0x82>	0
<0x83>	0
<0x84>	0
<0x85>	0
<0x86>	0
<0x87>	0
<0x88>	0
<0x89>	0
<0x8A>	0
<0x8B>	0
<0x8C>	0
<0x8D>	0
<0x8E>	0
<0x8F>	0
<0x90>	0
<0x91>	0
<0x92>	0
<0x93>	0
<0x94>	0
<0x95>	0
<0x96>	0
<0x97>	0
<0x98>	0
<0x99>	0
<0x9A>	0
<0x9B>	0
<0x9C>	0
<0x9D>	0
<0x9E>	0
<0x9F>	0
<0xA0>	0
<0xA1>	0
<0xA2>	0
<0xA3>	0
<0xA4>	0
<0xA5>	0
<0xA6>	0
<0xA7>	0
<0xA8>	0
<0xA9>	0
<0xAA>	0
<0xAB>	0
<0xAC>	0
<0xAD>	0
<0xAE>	0
<0xAF>	0
<0xB0>	0
<0xB1>	0
<0xB2>	0
<0xB3>	0
<0xB4>	0
<0xB5>	0
<0xB6>	0
<0xB7>	0
<0xB8>	0
<0xB9>	0
<0xBA>	0
<0xBB>	0
<0xBC>	0
<0xBD>	0
<0xBE>	0
<0xBF>	0
<0xC0>	0
<0xC1>	0
<0xC2>	0
<0xC3>	0
<0xC4>	0
<0xC5>	0
<0xC6>	0
<0xC7>	0
<0xC8>	0
<0xC9>	0
<0xCA>	0
<0xCB>	0
<0xCC>	0
<0xCD>	0
<0xCE>	0
<0xCF>	0
<0xD0>	0
<0xD1>	0
<0xD2>	0
<0xD3>	0
<0xD4>	0
<0xD5>	0
<0xD6>	0
<0xD7>	0
<0xD8>	0
<0xD9>	0
<0xDA>	0
<0xDB>	0
<0xDC>	0
<0xDD>	0
<0xDE>	0
<0xDF>	0
<0xE0>	0
<0xE1>	0
<0xE2>	0
<0xE3>	0
<0xE4>	0
<0xE5>	0
<0xE6>	0
<0xE7>	0
<0xE8>	0
<0xE9>	0
<0xEA>	0
<0xEB>	0
<0xEC>	0
<0xED>	0
<0xEE>	0
<0xEF>	0
<0xF0>	0
<0xF1>	0
<0xF2>	0
<0xF3>	0
<0xF4>	0
<0xF5>	0
<0xF6>	0
<0xF7>	0
<0xF8>	0
<0xF9>	0
<0xFA>	0
<0xFB>	0
<0xFC>	0
<0xFD>	0
<0xFE>	0
<0xFF>	0
▁с	-0
на	-1
▁п	-2
то	-3
▁и	-4
та	-5
▁д	-6
ка	-7
ра	-8
ва	-9
▁в	-10
ни	-11
ко	-12
те	-13
▁о	-14
но	-15
▁на	-16
▁м	-17
▁—	-18
не	-19
ше	-20
▁по	-21
за	-22
▁б	-23
ре	-24
ри	-25
ли	-26
▁г	-27
▁се	-28
че	-29
ле	-30
▁за	-31
ти	-32
▁да	-33
ла	-34
▁не	-35
▁ка	-36
во	-37
ве	-38
▁от	-39
ро	-40
ви	-41
да	-42
ст	-43
ха	-44
де	-45
ки	-46
ър	-47
▁из	-48
▁е	-49
▁т	-50
ди	-51
▁Т	-52
▁то	-53
▁ко	-54
▁си	-55
га	-56
▁го	-57
го	-58
ма	-59
▁бе	-60
▁у	-61
ня	-62
ме	-63
ло	-64
ът	-65
▁до	-66
▁че	-67
▁к	-68
ча	-69
жи	-70
▁С	-71
▁ра	-72
▁К	-73
ят	-74
ще	-75
▁му	-76
▁Н	-77
чо	-78
же	-79
▁М	-80
ми	-81
▁при	-82
по	-83
ъл	-84
ръ	-85
▁То	-86
ето	-87
▁а	-88
▁ви	-89
чи	-90
▁О	-91
▁пре	-92
▁та	-93
▁беше	-94
се	-95
▁раз	-96
▁Д	-97
▁П	-98
ца	-99
ля	-100
си	-101
▁съ	-102
▁з	-103
▁като	-104
ци	-105
ваше	-106
ря	-107
ба	-108
що	-109
▁про	-110
мо	-111
па	-112
▁В	-113
▁ми	-114
ру	-115
би	-116
▁И	-117
лу	-118
▁той	-119
▁но	-120
ние	-121
▁ли	-122
до	-123
▁ти	-124
▁Г	-125
▁х	-126
сти	-127
ши	-128
ски	-129
▁мо	-130
▁А	-131
бе	-132
бо	-133
▁па	-134
▁Б	-135
▁ще	-136
ста	-137
пи	-138
▁въ	-139
жа	-140
▁са	-141
ката	-142
▁ме	-143
▁Той	-144
▁ст	-145
▁ве	-146
▁я	-147
▁Ма	-148
са	-149
ща	-150
ната	-151
тел	-152
▁ма	-153
▁ни	-154
кто	-155
▁ня	-156
чу	-157
▁Р	-158
▁каза	-159
дна	-160
ния	-161
ъм	-162
зи	-163
▁Ог	-164
ша	-165
зе	-166
це	-167
няно	-168
▁Огняно	-169
сто	-170
вър	-171
▁това	-172
джи	-173
▁ту	-174
▁об	-175
дин	-176
▁Ка	-177
▁те	-178
рко	-179
ска	-180
гле	-181
▁де	-182
ду	-183
сич	-184
▁ба	-185
ните	-186
▁ду	-187
▁дру	-188
лко	-189
▁кой	-190
пе	-191
▁Не	-192
▁Х	-193
▁пи	-194
▁без	-195
▁„	-196
спо	-197
▁тя	-198
дно	-199
▁чо	-200
ги	-201
▁Марко	-202
▁зна	-203
▁него	-204
лю	-205
▁ста	-206
вори	-207
рави	-208
▁към	-209
▁Ра	-210
▁Огнянов	-211
ята	-212
▁Но	-213
▁всич	-214
со	-215
▁По	-216
▁въз	-217
рът	-218
вата	-219
▁гла	-220
▁как	-221
▁който	-222
ък	-223
▁под	-224
▁един	-225
▁погле	-226
▁й	-227
▁Ха	-228
яха	-229
▁во	-230
▁ги	-231
▁чу	-232
ден	-233
рат	-234
▁стра	-235
сле	-236
▁ре	-237
зо	-238
ките	-239
▁гра	-240
зва	-241
▁пе	-242
▁докто	-243
ито	-244
▁На	-245
▁Сте	-246
▁има	-247
▁пла	-248
▁пред	-249
хо	-250
зна	-251
▁Стеф	-252
▁Е	-253
▁Стефчо	-254
▁бо	-255
▁ча	-256
цата	-257
▁тая	-258
▁които	-259
бра	-260
▁още	-261
▁няко	-262
▁Ко	-263
▁би	-264
▁аз	-265
тата	-266
▁пак	-267
гу	-268
▁бу	-269
▁чове	-270
щи	-271
гна	-272
▁Да	-273
вика	-274
пита	-275
ство	-276
▁само	-277
жда	-278
ято	-279
сна	-280
▁До	-281
▁жи	-282
▁сто	-283
нието	-284
рали	-285
▁която	-286
дя	-287
ен	-288
шу	-289
▁слу	-290
ско	-291
ува	-292
▁Хаджи	-293
▁пу	-294
▁З	-295
▁Аз	-296
▁ръ	-297
▁нап	-298
▁отго	-299
еше	-300
леда	-301
▁една	-302
▁Крали	-303
гато	-304
лъ	-305
гра	-306
ного	-307
ците	-308
къ	-309
му	-310
▁Ви	-311
реме	-312
▁госпо	-313
▁извика	-314
▁Го	-315
коло	-316
▁оста	-317
нчо	-318
ряб	-319
▁пра	-320
▁тоя	-321
▁гледа	-322
ред	-323
▁Ми	-324
ваха	-325
лезе	-326
стве	-327
ърна	-328
ност	-329
ното	-330
▁сега	-331
вя	-332
▁Л	-333
▁Ти	-334
▁дя	-335
▁Как	-336
фи	-337
▁Та	-338
▁Рада	-339
вле	-340
ник	-341
лаго	-342
▁тур	-343
▁време	-344
▁За	-345
нове	-346
▁бай	-347
бре	-348
мен	-349
▁Бо	-350
щото	-351
▁няма	-352
▁човек	-353
▁попита	-354
▁Ч	-355
чът	-356
▁Со	-357
▁вече	-358
▁едно	-359
▁знае	-360
телно	-361
▁може	-362
кри	-363
▁От	-364
▁ку	-365
▁ро	-366
▁нещо	-367
рите	-368
цето	-369
▁вра	-370
▁дето	-371
▁което	-372
мя	-373
лите	-374
ълга	-375
▁много	-376
▁Стефчов	-377
лно	-378
▁же	-379
▁изп	-380
▁очи	-381
▁чер	-382
▁други	-383
▁Краличът	-384
кой	-385
▁зап	-386
▁иде	-387
▁кра	-388
▁сме	-389
▁рабо	-390
рба	-391
ният	-392
чето	-393
▁све	-394
▁Това	-395
▁видя	-396
▁през	-397
▁Соколо	-398
▁отговори	-399
ся	-400
▁ц	-401
▁все	-402
▁два	-403
▁съм	-404
рябва	-405
ку	-406
съ	-407
сно	-408
▁Ге	-409
▁Ива	-410
▁тия	-411
ън	-412
▁ус	-413
ване	-414
▁гър	-415
▁сър	-416
▁благо	-417
▁когато	-418
▁Огнянова	-419
фе	-420
▁Ф	-421
бли	-422
ран	-423
тре	-424
▁хо	-425
вото	-426
▁най	-427
▁нея	-428
▁оби	-429
▁там	-430
лен	-431
сен	-432
сте	-433
хна	-434
▁лю	-435
дени	-436
▁или	-437
▁учи	-438
ъде	-439
▁Ни	-440
▁ва	-441
гава	-442
▁със	-443
▁казва	-444
ъй	-445
рят	-446
▁Тя	-447
▁ди	-448
▁пове	-449
бу	-450
хи	-451
баши	-452
▁сво	-453
▁бяха	-454
▁хвър	-455
он	-456
про	-457
рда	-458
рещ	-459
▁ле	-460
лата	-461
мата	-462
▁сла	-463
нбаши	-464
▁наро	-465
▁излезе	-466
ге	-467
ама	-468
рия	-469
▁Му	-470
▁Се	-471
▁ха	-472
рски	-473
насти	-474
▁Докто	-475
▁всички	-476
▁доктора	-477
▁направи	-478
ян	-479
ква	-480
нко	-481
▁ки	-482
▁це	-483
вете	-484
▁взе	-485
▁вър	-486
▁дъл	-487
▁нощ	-488
▁път	-489
▁тре	-490
денча	-491
чески	-492
▁Фрат	-493
▁види	-494
▁висо	-495
▁душа	-496
▁живо	-497
▁какво	-498
▁защото	-499
▁обърна	-500
▁манасти	-501
ке	-502
ну	-503
вен	-504
вор	-505
лка	-506
▁Ба	-507
▁Па	-508
▁Ро	-509
▁сп	-510
вана	-511
ница	-512
нски	-513
▁дър	-514
рбаджи	-515
нбашият	-516
ств	-517
▁ця	-518
▁шу	-519
ници	-520
▁оти	-521
▁забе	-522
▁каже	-523
▁мене	-524
▁така	-525
▁тука	-526
▁после	-527
▁гледаше	-528
▁ф	-529
▁ос	-530
вите	-531
нята	-532
рата	-533
▁игу	-534
▁поп	-535
▁спо	-536
▁тър	-537
▁Рово	-538
▁нищо	-539
▁поглед	-540
▁докторът	-541
вам	-542
лед	-543
ръв	-544
▁Бе	-545
▁Ди	-546
▁Из	-547
▁Пе	-548
▁бя	-549
▁дре	-550
▁тъй	-551
▁трябва	-552
▁Ровоама	-553
▁няколко	-554
йка	-555
кен	-556
мна	-557
мък	-558
пна	-559
▁мя	-560
▁доб	-561
▁над	-562
▁пис	-563
кенти	-564
▁иска	-565
▁забеле	-566
▁Викенти	-567
▁погледна	-568
жду	-569
къв	-570
пит	-571
раз	-572
сни	-573
тив	-574
шна	-575
▁ла	-576
▁мъ	-577
▁чи	-578
воре	-579
каза	-580
лото	-581
чаше	-582
▁Бой	-583
▁Ста	-584
▁дой	-585
▁тъм	-586
▁годи	-587
▁усми	-588
▁Фратю	-589
▁малко	-590
▁вратата	-591
чер	-592
чка	-593
шно	-594
▁им	-595
даде	-596
мени	-597
стра	-598
▁изб	-599
ската	-600
▁бъде	-601
▁вест	-602
▁Какво	-603
▁бълга	-604
▁както	-605
▁позна	-606
▁забележи	-607
ер	-608
ват	-609
дъл	-610
рка	-611
тра	-612
тър	-613
чен	-614
▁Ки	-615
лови	-616
нима	-617
стви	-618
▁оба	-619
▁пър	-620
менът	-621
▁прия	-622
▁място	-623
▁стана	-624
▁водени	-625
▁лицето	-626
▁Соколов	-627
▁воденча	-628
▁чорбаджи	-629
вън	-630
жно	-631
сли	-632
▁Ту	-633
▁вя	-634
▁дъ	-635
▁къ	-636
деше	-637
кива	-638
▁зло	-639
▁мла	-640
▁вика	-641
▁лице	-642
▁писмо	-643
▁Генове	-644
▁всичко	-645
▁работа	-646
▁Докторът	-647
пу	-648
гла	-649
дир	-650
дра	-651
нка	-652
нът	-653
хме	-654
▁ло	-655
гата	-656
йски	-657
▁Кой	-658
▁мъл	-659
▁опа	-660
▁весе	-661
▁глас	-662
▁граф	-663
▁нито	-664
▁пита	-665
▁Госпо	-666
▁Стефчова	-667
▁всичките	-668
вия	-669
ите	-670
кна	-671
опа	-672
▁Га	-673
▁Ла	-674
дост	-675
коро	-676
▁Сми	-677
▁във	-678
▁кни	-679
▁сму	-680
▁тях	-681
▁чув	-682
гледа	-683
казва	-684
▁Всич	-685
▁даде	-686
▁моми	-687
▁помо	-688
▁града	-689
ем	-690
из	-691
ъп	-692
▁Щ	-693
дни	-694
йно	-695
йте	-696
кия	-697
тов	-698
▁Ги	-699
▁Са	-700
▁лъ	-701
бави	-702
нето	-703
стоя	-704
чеше	-705
▁вяр	-706
▁глу	-707
▁Мичо	-708
▁дете	-709
▁дяко	-710
▁ръце	-711
▁внима	-712
▁друго	-713
▁разго	-714
▁слуша	-715
▁повече	-716
▁господин	-717
ар	-718
“,	-719
вет	-720
лия	-721
три	-722
▁Че	-723
▁ца	-724
бира	-725
вора	-726
ливо	-727
ълзи	-728
▁гръ	-729
▁зад	-730
▁зат	-731
▁тра	-732
▁уби	-733
▁ули	-734
▁час	-735
ското	-736
▁Голо	-737
▁Кири	-738
▁игра	-739
▁любо	-740
▁наме	-741
▁пора	-742
▁стро	-743
▁Бойчо	-744
▁имаше	-745
▁случа	-746
▁против	-747
▁Геновева	-748
▁У	-749
вка	-750
вол	-751
гне	-752
лет	-753
сет	-754
▁Де	-755
▁Те	-756
▁ум	-757
▁що	-758
мира	-759
шите	-760
▁бър	-761
▁гро	-762
▁зас	-763
▁пот	-764
▁сте	-765
▁сти	-766
зваше	-767
▁дума	-768
▁дядо	-769
▁нови	-770
▁няка	-771
▁твър	-772
▁добре	-773
▁между	-774
▁хвърли	-775
▁онбашият	-776
!“	-777
мъ	-778
дия	-779
кси	-780
тен	-781
уба	-782
хте	-783
чат	-784
чно	-785
шка	-786
▁су	-787
▁хи	-788
дата	-789
лище	-790
ложе	-791
мите	-792
ника	-793
нтов	-794
обра	-795
ътре	-796
▁Кле	-797
▁ако	-798
▁вла	-799
▁тръ	-800
нията	-801
стите	-802
▁голя	-803
▁мина	-804
▁непо	-805
▁свет	-806
ствено	-807
▁Смион	-808
▁въпро	-809
▁глава	-810
▁прозо	-811
▁остана	-812
▁отвори	-813
▁продъл	-814
▁такива	-815
▁учител	-816
▁Ю	-817
вед	-818
кра	-819
нес	-820
пла	-821
сан	-822
шен	-823
▁Ня	-824
▁жа	-825
▁ру	-826
▁ше	-827
варя	-828
веде	-829
зата	-830
теше	-831
щата	-832
▁Тоя	-833
▁вся	-834
▁пос	-835
▁Сега	-836
▁Юрда	-837
▁брат	-838
▁кафе	-839
▁поли	-840
▁хора	-841
ствува	-842
▁После	-843
▁всеки	-844
▁друга	-845
▁народ	-846
▁сълзи	-847
▁Клеопа	-848
▁приятел	-849
▁Викентий	-850
.“	-851
ту	-852
гов	-853
дко	-854
рен	-855
чув	-856
шки	-857
шко	-858
луге	-859
стно	-860
чета	-861
▁нас	-862
▁пръ	-863
▁тук	-864
шката	-865
▁Дамя	-866
▁вели	-867
▁ръка	-868
▁скри	-869
▁Ганко	-870
▁Кириа	-871
▁Марка	-872
▁Мунчо	-873
▁вижда	-874
▁знаеш	-875
▁песен	-876
▁Иванчо	-877
▁Когато	-878
▁години	-879
▁твърде	-880
▁тогава	-881
▁главата	-882
▁турците	-883
нап	-884
пра	-885
при	-886
яла	-887
▁Дя	-888
▁ог	-889
дите	-890
кова	-891
сата	-892
▁Пре	-893
▁вид	-894
▁зах	-895
▁иди	-896
▁мра	-897
▁поз	-898
▁сви	-899
▁тро	-900
▁тру	-901
▁уда	-902
▁учу	-903
драви	-904
мекси	-905
уваше	-906
▁беят	-907
▁след	-908
▁тебе	-909
▁хуба	-910
▁Гинка	-911
▁добро	-912
▁живот	-913
▁никой	-914
▁Тогава	-915
▁другите	-916
▁Соколова	-917
▁игуменът	-918
об	-919
▁Ш	-920
вно	-921
дат	-922
дне	-923
зен	-924
йна	-925
нча	-926
ция	-927
▁Лю	-928
▁лу	-929
▁фи	-930
арбе	-931
вица	-932
дено	-933
дето	-934
доха	-935
мена	-936
стие	-937
▁Сто	-938
▁ден	-939
▁миг	-940
▁поч	-941
▁три	-942
лкото	-943
рещна	-944
стина	-945
▁Мари	-946
▁днес	-947
▁запо	-948
▁кога	-949
▁поми	-950
▁спря	-951
▁щеше	-952
арбеки	-953
вление	-954
напред	-955
▁двама	-956
▁някой	-957
▁обади	-958
▁откри	-959
▁плани	-960
▁страх	-961
бликата	-962
▁Емекси	-963
▁душата	-964
▁калуге	-965
▁намира	-966
▁стоеше	-967
▁страда	-968
ван	-969
ваш	-970
ври	-971
дър	-972
клю	-973
лят	-974
нин	-975
нич	-976
тие	-977
тия	-978
▁Во	-979
▁Ру	-980
▁ща	-981
бата	-982
веше	-983
жеше	-984
лост	-985
нува	-986
ръща	-987
ства	-988
тели	-989
това	-990
▁Тур	-991
▁бил	-992
▁вие	-993
▁въл	-994
▁гор	-995
▁кри	-996
▁мис	-997
▁сам	-998
▁сно	-999
▁тво	-1000
▁цар	-1001
добре	-1002
кваше	-1003
▁даже	-1004
▁обла	-1005
▁обле	-1006
▁пода	-1007
ството	-1008
▁Лалка	-1009
▁вечер	-1010
▁дойде	-1011
▁дълбо	-1012
▁прави	-1013
▁силно	-1014
▁скоро	-1015
▁такъв	-1016
▁чарда	-1017
▁черко	-1018
арбекир	-1019
рябваше	-1020
▁казвам	-1021
▁погледи	-1022
▁училище	-1023
▁Диарбекир	-1024
▁Клеопатра	-1025
▁воденчарят	-1026
зя	-1027
ъв	-1028
ъж	-1029
бър	-1030
вер	-1031
вич	-1032
лаф	-1033
нта	-1034
пре	-1035
сем	-1036
тна	-1037
▁Ще	-1038
▁со	-1039
дума	-1040
къде	-1041
шина	-1042
▁Ами	-1043
▁Гра	-1044
▁При	-1045
▁Рад	-1046
▁май	-1047
▁пом	-1048
▁пъл	-1049
▁съд	-1050
▁тоз	-1051
▁уст	-1052
▁Беят	-1053
▁Любо	-1054
▁Миха	-1055
▁Нечо	-1056
▁баби	-1057
▁думи	-1058
▁запа	-1059
▁неви	-1060
▁неща	-1061
лафран	-1062
▁Бълга	-1063
▁безпо	-1064
▁двора	-1065
▁любов	-1066
▁момък	-1067
▁разпа	-1068
▁хвана	-1069
▁високо	-1070
▁разбра	-1071
▁турски	-1072
▁писмото	-1073
▁предста	-1074
▁продължи	-1075
▁манастира	-1076
ев	-1077
от	-1078
ум	-1079
бле	-1080
вят	-1081
еха	-1082
лив	-1083
нов	-1084
рно	-1085
сал	-1086
сам	-1087
тор	-1088
фен	-1089
▁Ах	-1090
▁Мо	-1091
▁Пи	-1092
▁зе	-1093
▁зи	-1094
лено	-1095
лязо	-1096
ляше	-1097
рази	-1098
сети	-1099
стта	-1100
щава	-1101
▁бея	-1102
▁дръ	-1103
▁име	-1104
▁кле	-1105
▁син	-1106
▁сце	-1107
върна	-1108
нение	-1109
фенди	-1110
чение	-1111
▁Бяла	-1112
▁Като	-1113
▁Само	-1114
▁друг	-1115
▁защо	-1116
▁кръв	-1117
▁мину	-1118
▁мога	-1119
▁пока	-1120
▁себе	-1121
▁дреха	-1122
▁обича	-1123
▁очите	-1124
▁преди	-1125
▁прили	-1126
▁свобо	-1127
▁сърди	-1128
▁толко	-1129
▁Всички	-1130
▁Ставри	-1131
▁бунтов	-1132
▁можеше	-1133
▁момиче	-1134
▁намери	-1135
▁остави	-1136
▁радост	-1137
▁благода	-1138
▁вестник	-1139
▁госпожа	-1140
▁изгледа	-1141
▁разбира	-1142
▁страшно	-1143
▁усмихна	-1144
▁чувство	-1145
▁воденицата	-1146
дъ	-1147
▁щ	-1148
бна	-1149
гли	-1150
ема	-1151
кар	-1152
кол	-1153
кръ	-1154
нъж	-1155
пал	-1156
рой	-1157
сне	-1158
тът	-1159
ърт	-1160
яно	-1161
▁Ве	-1162
лаки	-1163
сега	-1164
чете	-1165
▁Раз	-1166
▁Тая	-1167
▁вас	-1168
▁заб	-1169
▁изс	-1170
▁кон	-1171
▁нав	-1172
▁нау	-1173
▁ние	-1174
▁обе	-1175
▁съв	-1176
▁уче	-1177
▁цял	-1178
▁шум	-1179
ближи	-1180
койно	-1181
ствие	-1182
▁Геде	-1183
▁баща	-1184
▁голе	-1185
▁двор	-1186
▁души	-1187
▁избя	-1188
▁кажа	-1189
▁кона	-1190
▁нико	-1191
▁отче	-1192
▁побе	-1193
▁роля	-1194
▁свър	-1195
▁същи	-1196
▁целу	-1197
▁чете	-1198
▁всяка	-1199
▁вътре	-1200
▁графи	-1201
▁майка	-1202
▁тъмни	-1203
▁Кириак	-1204
▁Трябва	-1205
▁графът	-1206
▁Емексиз	-1207
▁България	-1208
▁Онбашият	-1209
▁внимание	-1210
▁приказва	-1211
ск	-1212
тя	-1213
▁Й	-1214
доб	-1215
жде	-1216
кро	-1217
лез	-1218
лна	-1219
нен	-1220
рак	-1221
сил	-1222
тин	-1223
тро	-1224
цът	-1225
час	-1226
шъл	-1227
▁Ва	-1228
▁Си	-1229
▁Съ	-1230
▁пъ	-1231
▁ци	-1232
виже	-1233
вият	-1234
гото	-1235
кара	-1236
лиза	-1237
неше	-1238
рица	-1239
стри	-1240
▁Дра	-1241
▁две	-1242
▁обя	-1243
▁пък	-1244
▁сва	-1245
▁сле	-1246
▁уве	-1247
▁ума	-1248
рение	-1249
стори	-1250
телни	-1251
ческа	-1252
▁боже	-1253
▁дове	-1254
▁жена	-1255
▁изпо	-1256
▁кажи	-1257
▁кака	-1258
▁край	-1259
▁мето	-1260
▁нари	-1261
▁стре	-1262
▁упла	-1263
▁хиля	-1264
▁челя	-1265
▁чест	-1266
ността	-1267
▁Подир	-1268
▁Радке	-1269
▁борба	-1270
▁бързо	-1271
▁влезе	-1272
▁въста	-1273
▁насам	-1274
▁подир	-1275
▁помощ	-1276
▁причи	-1277
▁трепе	-1278
нически	-1279
▁ефенди	-1280
▁нямаше	-1281
▁полити	-1282
▁послед	-1283
▁такава	-1284
влението	-1285
▁Дамянчо	-1286
▁захвана	-1287
▁изправи	-1288
▁калугери	-1289
▁приближи	-1290
еш	-1291
рт	-1292
“.	-1293
▁Я	-1294
▁ш	-1295
вля	-1296
вой	-1297
вци	-1298
дът	-1299
кът	-1300
рил	-1301
ршу	-1302
сък	-1303
тка	-1304
фът	-1305
хла	-1306
чем	-1307
▁Ме	-1308
▁га	-1309
▁ну	-1310
▁оз	-1311
вета	-1312
вобо	-1313
гаше	-1314
дине	-1315
ерце	-1316
жава	-1317
йсет	-1318
кове	-1319
кото	-1320
лени	-1321
луша	-1322
ляха	-1323
реца	-1324
стро	-1325
тите	-1326
чера	-1327
шата	-1328
▁Про	-1329
▁ама	-1330
▁вто	-1331
▁гот	-1332
▁гре	-1333
▁джа	-1334
▁жив	-1335
▁оча	-1336
брати	-1337
дигна	-1338
ждаше	-1339
шните	-1340
шушна	-1341
▁Една	-1342
▁Защо	-1343
▁врат	-1344
▁здра	-1345
▁кара	-1346
▁кили	-1347
▁месе	-1348
▁недо	-1349
▁отча	-1350
▁стъп	-1351
▁чака	-1352
образи	-1353
▁Недко	-1354
▁възду	-1355
▁какъв	-1356
▁някои	-1357
▁освет	-1358
▁патри	-1359
▁плаче	-1360
▁право	-1361
▁разка	-1362
▁турци	-1363
▁търже	-1364
▁Гедеон	-1365
▁викаше	-1366
▁голямо	-1367
▁детето	-1368
▁децата	-1369
▁искаше	-1370
▁работи	-1371
▁ръцете	-1372
▁случай	-1373
▁строго	-1374
▁тръгна	-1375
ствуваше	-1376
▁Алафран	-1377
▁Госпожа	-1378
▁съдбата	-1379
▁усмивка	-1380
▁черкова	-1381
▁въстание	-1382
▁трябваше	-1383
▁Любобрати	-1384
▁публиката	-1385
▁манастирски	-1386
бя	-1387
кт	-1388
су	-1389
ъз	-1390
▁(	-1391
ган	-1392
гри	-1393
деж	-1394
жна	-1395
кла	-1396
кло	-1397
лки	-1398
лов	-1399
лък	-1400
лън	-1401
мръ	-1402
олу	-1403
реч	-1404
рни	-1405
сия	-1406
тец	-1407
чал	-1408
чки	-1409
▁Бу	-1410
▁Ку	-1411
▁Чо	-1412
▁ед	-1413
▁ин	-1414
бора	-1415
вено	-1416
годи	-1417
дели	-1418
жата	-1419
ложи	-1420
меше	-1421
мина	-1422
несе	-1423
нете	-1424
рани	-1425
риго	-1426
собе	-1427
тана	-1428
тият	-1429
чаха	-1430
чита	-1431
щаше	-1432
ълни	-1433
ятно	-1434
▁Игу	-1435
▁ами	-1436
▁гри	-1437
▁дни	-1438
▁зем	-1439
▁кло	-1440
▁кръ	-1441
▁пог	-1442
▁сту	-1443
▁теа	-1444
влече	-1445
мисле	-1446
▁Дядо	-1447
▁Един	-1448
▁Пред	-1449
▁дома	-1450
▁живе	-1451
▁заве	-1452
▁избъ	-1453
▁изку	-1454
▁изла	-1455
▁плам	-1456
▁реши	-1457
▁сила	-1458
▁тихо	-1459
веднъж	-1460
жаваше	-1461
истина	-1462
лязоха	-1463
▁Голос	-1464
▁Григо	-1465
▁Добре	-1466
▁Стара	-1467
▁видиш	-1468
▁доста	-1469
▁дълго	-1470
▁заран	-1471
▁куршу	-1472
▁мисли	-1473
▁мисъл	-1474
▁отиде	-1475
▁падна	-1476
▁преме	-1477
▁приро	-1478
▁проте	-1479
▁пусна	-1480
▁сиреч	-1481
▁стане	-1482
▁улица	-1483
▁улови	-1484
ерцегов	-1485
ложение	-1486
▁Графът	-1487
▁българ	-1488
▁възтор	-1489
▁заптие	-1490
▁знаеше	-1491
▁когото	-1492
▁прозор	-1493
▁просто	-1494
▁тозчас	-1495
▁Кралича	-1496
▁гостите	-1497
▁двамата	-1498
▁казваше	-1499
▁помисли	-1500
▁продума	-1501
▁разказа	-1502
▁Григорът	-1503
▁Игуменът	-1504
▁Михалаки	-1505
▁Недкович	-1506
▁отговаря	-1507
▁прозореца	-1508
▁Алафрангата	-1509
йн	-1510
ьо	-1511
▁н	-1512
▁ю	-1513
бно	-1514
вим	-1515
вна	-1516
йде	-1517
йду	-1518
кви	-1519
кли	-1520
ляз	-1521
нци	-1522
нят	-1523
рав	-1524
сла	-1525
сър	-1526
тък	-1527
хли	-1528
хът	-1529
▁Ча	-1530
▁ша	-1531
▁ши	-1532
буди	-1533
вади	-1534
вали	-1535
ерде	-1536
зова	-1537
леби	-1538
леше	-1539
люби	-1540
маше	-1541
нова	-1542
пира	-1543
раво	-1544
рена	-1545
сеше	-1546
хвър	-1547
▁Ако	-1548
▁Бай	-1549
▁Вие	-1550
▁Ние	-1551
▁Тия	-1552
▁ези	-1553
▁кла	-1554
▁мом	-1555
▁сли	-1556
▁сма	-1557
волно	-1558
ляска	-1559
после	-1560
ратли	-1561
сност	-1562
стата	-1563
творе	-1564
чител	-1565
чката	-1566
▁Иван	-1567
▁Кога	-1568
▁Мано	-1569
▁Мича	-1570
▁Оста	-1571
▁баба	-1572
▁дале	-1573
▁дъще	-1574
▁зако	-1575
▁зная	-1576
▁изпи	-1577
▁камъ	-1578
▁мари	-1579
▁можа	-1580
▁неиз	-1581
▁пищо	-1582
▁поди	-1583
▁поле	-1584
▁поне	-1585
▁попа	-1586
▁поръ	-1587
▁сиро	-1588
▁часа	-1589
▁щото	-1590
▁ясно	-1591
ването	-1592
венджи	-1593
ствена	-1594
▁Мерде	-1595
▁Скоро	-1596
▁Стоян	-1597
▁весел	-1598
▁гости	-1599
▁графа	-1600
▁дигна	-1601
▁дрехи	-1602
▁играе	-1603
▁каква	-1604
▁крака	-1605
▁около	-1606
▁песни	-1607
▁присъ	-1608
▁пропа	-1609
▁прост	-1610
▁сърце	-1611
▁съчув	-1612
▁удари	-1613
▁Голоса	-1614
▁въпрос	-1615
▁големи	-1616
▁дякона	-1617
▁избави	-1618
▁конака	-1619
▁напред	-1620
▁показа	-1621
▁привър	-1622
▁първия	-1623
▁ръката	-1624
▁срещна	-1625
▁съвсем	-1626
▁тишина	-1627
▁хвърля	-1628
▁хиляди	-1629
▁хубаво	-1630
▁цялата	-1631
▁черква	-1632
▁Марийка	-1633
▁Муратли	-1634
▁въпроси	-1635
▁държеше	-1636
▁дяконът	-1637
▁игумена	-1638
▁избъбра	-1639
▁някаква	-1640
▁прибави	-1641
▁сцената	-1642
▁толкова	-1643
▁чардака	-1644
▁работата	-1645
▁случайно	-1646
▁спокойно	-1647
▁воденчаря	-1648
▁графинята	-1649
▁приличаше	-1650
▁Мердевенджи	-1651
▁Муратлийски	-1652
?“	-1653
шо	-1654
▁Ц	-1655
вли	-1656
дка	-1657
жен	-1658
жни	-1659
кои	-1660
кох	-1661
кти	-1662
ман	-1663
нно	-1664
пио	-1665
рем	-1666
ръм	-1667
сиа	-1668
стъ	-1669
тко	-1670
чин	-1671
чна	-1672
чни	-1673
▁Йо	-1674
▁Об	-1675
▁Ше	-1676
▁Що	-1677
▁ге	-1678
▁фа	-1679
▁щя	-1680
блед	-1681
воля	-1682
вяда	-1683
едно	-1684
жено	-1685
жите	-1686
кога	-1687
неза	-1688
рено	-1689
стен	-1690
усна	-1691
▁Най	-1692
▁Още	-1693
▁Пла	-1694
▁ага	-1695
▁бле	-1696
▁бра	-1697
▁бро	-1698
▁бях	-1699
▁връ	-1700
▁дай	-1701
▁ида	-1702
▁кро	-1703
▁мой	-1704
▁неб	-1705
▁нео	-1706
▁неу	-1707
▁отв	-1708
▁пар	-1709
▁пов	-1710
▁сми	-1711
▁теж	-1712
▁удо	-1713
▁чуе	-1714
дията	-1715
ждаха	-1716
йките	-1717
ление	-1718
ствен	-1719
твори	-1720
тието	-1721
шение	-1722
▁Види	-1723
▁Дяко	-1724
▁Нико	-1725
▁Няма	-1726
▁Отде	-1727
▁Така	-1728
▁бога	-1729
▁буря	-1730
▁доби	-1731
▁звън	-1732
▁идат	-1733
▁изви	-1734
▁коме	-1735
▁куче	-1736
▁ника	-1737
▁пада	-1738
▁пеще	-1739
▁подс	-1740
▁полу	-1741
▁прав	-1742
▁прег	-1743
▁пръв	-1744
▁своя	-1745
▁срещ	-1746
▁стъл	-1747
▁тури	-1748
▁туря	-1749
▁физи	-1750
▁чети	-1751
бледня	-1752
блешко	-1753
говори	-1754
няваше	-1755
ренски	-1756
ряваше	-1757
собено	-1758
ствени	-1759
▁Петка	-1760
▁Пехли	-1761
▁висок	-1762
▁върна	-1763
▁глухо	-1764
▁гърба	-1765
▁движе	-1766
▁дошъл	-1767
▁дружи	-1768
▁изпит	-1769
▁камък	-1770
▁младе	-1771
▁мълча	-1772
▁наста	-1773
▁ниско	-1774
▁някоя	-1775
▁обора	-1776
▁почти	-1777
▁произ	-1778
▁револ	-1779
▁рекох	-1780
▁седна	-1781
▁снощи	-1782
▁трапе	-1783
▁често	-1784
стояние	-1785
▁Всичко	-1786
▁досега	-1787
▁дъщеря	-1788
▁здрави	-1789
▁земята	-1790
▁изпита	-1791
▁метоха	-1792
▁народа	-1793
▁настоя	-1794
▁освобо	-1795
▁пламна	-1796
▁подаде	-1797
▁приклю	-1798
▁седеше	-1799
▁стаята	-1800
▁Воденча	-1801
▁въздуха	-1802
▁дрехата	-1803
▁планина	-1804
▁причина	-1805
▁улицата	-1806
▁Каблешко	-1807
▁вестника	-1808
▁вратнята	-1809
▁извикаха	-1810
▁посрещна	-1811
▁български	-1812
▁училището	-1813
▁приятелски	-1814
пя	-1815
▁ж	-1816
бен	-1817
вай	-1818
дов	-1819
душ	-1820
дят	-1821
зно	-1822
йни	-1823
кай	-1824
кво	-1825
кле	-1826
лай	-1827
лът	-1828
мчо	-1829
нки	-1830
нче	-1831
оно	-1832
пен	-1833
пка	-1834
пте	-1835
рна	-1836
там	-1837
уня	-1838
ъби	-1839
ъна	-1840
яни	-1841
▁Ду	-1842
▁аа	-1843
▁см	-1844
▁фе	-1845
бере	-1846
вяха	-1847
гите	-1848
дале	-1849
деве	-1850
здра	-1851
лена	-1852
лива	-1853
лият	-1854
лове	-1855
мене	-1856
ндов	-1857
нено	-1858
паха	-1859
паше	-1860
репо	-1861
реше	-1862
рява	-1863
сано	-1864
тено	-1865
тори	-1866
фето	-1867
чиво	-1868
шено	-1869
щето	-1870
щина	-1871
▁Бей	-1872
▁Дру	-1873
▁Ето	-1874
▁Зна	-1875
▁Пав	-1876
▁Пак	-1877
▁Сам	-1878
▁Там	-1879
▁бли	-1880
▁блъ	-1881
▁вме	-1882
▁впе	-1883
▁гъл	-1884
▁дей	-1885
▁клю	-1886
▁кня	-1887
▁ком	-1888
▁ней	-1889
▁пет	-1890
▁пле	-1891
▁роб	-1892
▁ски	-1893
▁спа	-1894
▁сян	-1895
▁уди	-1896
▁уми	-1897
▁уча	-1898
▁хла	-1899
вание	-1900
върши	-1901
гедия	-1902
гнато	-1903
дната	-1904
душен	-1905
душно	-1906
малко	-1907
правя	-1908
рител	-1909
стеше	-1910
стъпи	-1911
цията	-1912
чести	-1913
ъзуня	-1914
▁Едно	-1915
▁През	-1916
▁Сили	-1917
▁биде	-1918
▁била	-1919
▁бузи	-1920
▁вино	-1921
▁въже	-1922
▁духо	-1923
▁жива	-1924
▁зато	-1925
▁зачу	-1926
▁зида	-1927
▁идеш	-1928
▁изве	-1929
▁изгу	-1930
▁мърт	-1931
▁нали	-1932
▁наля	-1933
▁небе	-1934
▁нова	-1935
▁нрав	-1936
▁отде	-1937
▁отец	-1938
▁прие	-1939
▁псал	-1940
▁пътя	-1941
▁разв	-1942
▁сред	-1943
▁стои	-1944
▁съсе	-1945
▁току	-1946
▁узна	-1947
▁утре	-1948
▁хрът	-1949
▁шпио	-1950
вицата	-1951
ворена	-1952
йнстве	-1953
ниците	-1954
спокои	-1955
ълнува	-1956
▁Бойча	-1957
▁Димчо	-1958
▁Между	-1959
▁Мунча	-1960
▁Русия	-1961
▁Топал	-1962
▁Чакай	-1963
▁Юрдан	-1964
▁балка	-1965
▁вземе	-1966
▁видял	-1967
▁война	-1968
▁врата	-1969
▁възмо	-1970
▁жесто	-1971
▁запла	-1972
▁изпра	-1973
▁изчер	-1974
▁името	-1975
▁искам	-1976
▁колко	-1977
▁мисле	-1978
▁навън	-1979
▁начин	-1980
▁невин	-1981
▁непри	-1982
▁нужда	-1983
▁обика	-1984
▁одеве	-1985
▁отива	-1986
▁питам	-1987
▁подзе	-1988
▁преда	-1989
▁приви	-1990
▁прика	-1991
▁пръст	-1992
▁пушки	-1993
▁разпо	-1994
▁сепна	-1995
▁сетре	-1996
▁синко	-1997
▁сплет	-1998
▁стари	-1999
▁стори	-2000
▁устре	-2001
▁челяд	-2002
лънцето	-2003
рително	-2004
тически	-2005
▁Йотата	-2006
▁Кандов	-2007
▁Юрдана	-2008
▁велико	-2009
▁весело	-2010
▁вместо	-2011
▁вярвам	-2012
▁господ	-2013
▁гръмна	-2014
▁доктор	-2015
▁живота	-2016
▁запали	-2017
▁затова	-2018
▁избяга	-2019
▁извади	-2020
▁истори	-2021
▁кафето	-2022
▁минува	-2023
▁озърна	-2024
▁оставя	-2025
▁понеже	-2026
▁прекра	-2027
▁прости	-2028
▁сирома	-2029
▁смееше	-2030
▁такова	-2031
▁четеше	-2032
▁Иваница	-2033
▁виждаше	-2034
▁влязоха	-2035
▁забрави	-2036
▁народът	-2037
▁неволно	-2038
▁непозна	-2039
▁особено	-2040
▁отговор	-2041
▁песента	-2042
▁промени	-2043
▁ставаше	-2044
▁сърдито	-2045
▁сърцето	-2046
▁учудено	-2047
▁Чорбаджи	-2048
▁всичката	-2049
▁всичкото	-2050
▁изобрази	-2051
▁кафенето	-2052
▁манастир	-2053
▁минуваше	-2054
▁момичето	-2055
▁наистина	-2056
▁освободи	-2057
▁очакваше	-2058
▁повечето	-2059
▁разговор	-2060
▁трагедия	-2061
▁херцегов	-2062
▁Каблешков	-2063
▁разговори	-2064
▁състояние	-2065
▁човешката	-2066
▁Воденчарят	-2067
▁калугерицата	-2068
Не	-2069
ву	-2070
жд	-2071
оо	-2072
ор	-2073
вки	-2074
вяр	-2075
гот	-2076
жат	-2077
жди	-2078
жте	-2079
зад	-2080
зки	-2081
зни	-2082
йке	-2083
ков	-2084
кър	-2085
лек	-2086
лни	-2087
мет	-2088
мия	-2089
мях	-2090
нав	-2091
нак	-2092
нди	-2093
нец	-2094
нощ	-2095
нти	-2096
нъм	-2097
пно	-2098
рец	-2099
риз	-2100
рио	-2101
риф	-2102
тно	-2103
шия	-2104
▁Ав	-2105
▁Пу	-2106
▁Чу	-2107
▁бъ	-2108
▁ке	-2109
▁ри	-2110
▁тъ	-2111
бите	-2112
вето	-2113
висо	-2114
волю	-2115
гаре	-2116
гаха	-2117
горо	-2118
град	-2119
ждат	-2120
зира	-2121
лест	-2122
мент	-2123
моте	-2124
наде	-2125
неха	-2126
рафи	-2127
рени	-2128
реща	-2129
рото	-2130
ръжи	-2131
ряха	-2132
стин	-2133
стол	-2134
стъп	-2135
сяше	-2136
тото	-2137
тски	-2138
умно	-2139
чено	-2140
чите	-2141
шеше	-2142
яние	-2143
▁Вла	-2144
▁Или	-2145
▁Кри	-2146
▁Рус	-2147
▁Сър	-2148
▁Тук	-2149
▁Тъй	-2150
▁акт	-2151
▁бих	-2152
▁въо	-2153
▁гне	-2154
▁дже	-2155
▁зла	-2156
▁иро	-2157
▁лам	-2158
▁лов	-2159
▁мар	-2160
▁моя	-2161
▁мър	-2162
▁нао	-2163
▁нат	-2164
▁око	-2165
▁оре	-2166
▁пия	-2167
▁пои	-2168
▁пор	-2169
▁реч	-2170
▁ско	-2171
▁сло	-2172
▁спе	-2173
▁уви	-2174
▁уни	-2175
▁уро	-2176
▁хар	-2177
▁цел	-2178
▁щом	-2179
бърза	-2180
вания	-2181
дание	-2182
десет	-2183
дност	-2184
евски	-2185
жение	-2186
йници	-2187
колко	-2188
лезна	-2189
лъкна	-2190
лязъл	-2191
менно	-2192
рчето	-2193
скоро	-2194
сната	-2195
снаха	-2196
танаи	-2197
телна	-2198
трепе	-2199
хваше	-2200
шната	-2201
▁Кажи	-2202
▁Лала	-2203
▁Пиро	-2204
▁бият	-2205
▁бяга	-2206
▁бяло	-2207
▁деня	-2208
▁деца	-2209
▁жела	-2210
▁жерт	-2211
▁зави	-2212
▁зате	-2213
▁княз	-2214
▁коли	-2215
▁кому	-2216
▁коса	-2217
▁лица	-2218
▁лъже	-2219
▁маха	-2220
▁навъ	-2221
▁наре	-2222
▁обля	-2223
▁обще	-2224
▁огра	-2225
▁отър	-2226
▁скръ	-2227
▁стар	-2228
▁стру	-2229
▁съве	-2230
▁угри	-2231
▁фигу	-2232
▁цяла	-2233
▁широ	-2234
▁щаст	-2235
гинята	-2236
ждение	-2237
задето	-2238
здрави	-2239
новено	-2240
новете	-2241
нските	-2242
стигна	-2243
страда	-2244
чество	-2245
чината	-2246
▁Драка	-2247
▁Каква	-2248
▁Както	-2249
▁Много	-2250
▁Фратя	-2251
▁Хасан	-2252
▁видим	-2253
▁внеза	-2254
▁гласа	-2255
▁девой	-2256
▁забра	-2257
▁заспа	-2258
▁засра	-2259
▁зачер	-2260
▁идеше	-2261
▁извън	-2262
▁казал	-2263
▁млади	-2264
▁можем	-2265
▁намръ	-2266
▁научи	-2267
▁непод	-2268
▁нетър	-2269
▁нощта	-2270
▁образ	-2271
▁освен	-2272
▁покри	-2273
▁прага	-2274
▁ракия	-2275
▁свири	-2276
▁серио	-2277
▁смути	-2278
▁трупа	-2279
▁целия	-2280
▁черве	-2281
▁черни	-2282
▁черно	-2283
нението	-2284
ствието	-2285
чението	-2286
шинално	-2287
▁Богоро	-2288
▁Бъзуня	-2289
▁Серафи	-2290
▁Такива	-2291
▁Турция	-2292
▁аазата	-2293
▁гледам	-2294
▁година	-2295
▁грабна	-2296
▁даваше	-2297
▁джанъм	-2298
▁думите	-2299
▁заедно	-2300
▁залата	-2301
▁наведе	-2302
▁нарича	-2303
▁негоду	-2304
▁неизве	-2305
▁нещаст	-2306
▁никого	-2307
▁облаци	-2308
▁опасно	-2309
▁остане	-2310
▁отзова	-2311
▁патрио	-2312
▁потвър	-2313
▁револю	-2314
▁своята	-2315
▁сладко	-2316
▁слисан	-2317
▁слушай	-2318
▁страна	-2319
▁студен	-2320
▁театър	-2321
▁удовле	-2322
▁учуден	-2323
▁челеби	-2324
▁челото	-2325
▁шумеше	-2326
стрийски	-2327
▁Дамянча	-2328
▁Натанаи	-2329
▁Николай	-2330
▁Няколко	-2331
▁благоро	-2332
▁възторг	-2333
▁господа	-2334
▁гърдите	-2335
▁дълбоко	-2336
▁знамена	-2337
▁издигна	-2338
▁изпълни	-2339
▁килията	-2340
▁колкото	-2341
▁комедия	-2342
▁краката	-2343
▁любопит	-2344
▁мястото	-2345
▁обичаше	-2346
▁отиваше	-2347
▁отчаяно	-2348
▁помогне	-2349
▁предаде	-2350
▁прощава	-2351
▁робство	-2352
▁свобода	-2353
▁слушаше	-2354
▁тъмница	-2355
▁успокои	-2356
▁физионо	-2357
▁френски	-2358
стествено	-2359
▁Викентие	-2360
▁Силистра	-2361
▁воденица	-2362
▁завесата	-2363
▁заптието	-2364
▁здрависа	-2365
▁направил	-2366
▁пещерата	-2367
▁привърза	-2368
▁разправя	-2369
▁Бейзадето	-2370
▁Емексизът	-2371
▁българите	-2372
▁господине	-2373
▁младежите	-2374
▁разпалено	-2375
▁трапезата	-2376
▁тъмнината	-2377
▁благочести	-2378
▁иронически	-2379
▁манастирските	-2380
.,	-2381
жо	-2382
мн	-2383
фа	-2384
ху	-2385
▁ч	-2386
вал	-2387
вир	-2388
гия	-2389
дей	-2390
дри	-2391
ева	-2392
ене	-2393
зви	-2394
зия	-2395
зко	-2396
зъм	-2397
лан	-2398
лям	-2399
миш	-2400
мра	-2401
мът	-2402
ная	-2403
нду	-2404
пки	-2405
пли	-2406
пов	-2407
рин	-2408
съл	-2409
тер	-2410
тии	-2411
тни	-2412
уве	-2413
уме	-2414
уст	-2415
шли	-2416
щта	-2417
яна	-2418
яше	-2419
▁Ос	-2420
▁ав	-2421
▁ис	-2422
▁оп	-2423
▁пс	-2424
беди	-2425
вани	-2426
вате	-2427
веда	-2428
веха	-2429
вито	-2430
глав	-2431
гнал	-2432
горе	-2433
дена	-2434
доно	-2435
дява	-2436
жени	-2437
коли	-2438
лага	-2439
лони	-2440
лчем	-2441
мери	-2442
мита	-2443
миха	-2444
наги	-2445
нена	-2446
нков	-2447
рава	-2448
рано	-2449
рева	-2450
секи	-2451
сета	-2452
снат	-2453
сочи	-2454
таше	-2455
тяха	-2456
хите	-2457
хове	-2458
хото	-2459
чена	-2460
шком	-2461
шния	-2462
▁Бре	-2463
▁Взе	-2464
▁Вра	-2465
▁Ген	-2466
▁Дай	-2467
▁Под	-2468
▁Пър	-2469
▁Слу	-2470
▁Съб	-2471
▁апо	-2472
▁бре	-2473
▁виж	-2474
▁вят	-2475
▁гру	-2476
▁дор	-2477
▁дра	-2478
▁ела	-2479
▁зав	-2480
▁иск	-2481
▁кар	-2482
▁кли	-2483
▁кое	-2484
▁куп	-2485
▁кър	-2486
▁мръ	-2487
▁оня	-2488
▁пол	-2489
▁поя	-2490
▁пти	-2491
▁спи	-2492
▁сра	-2493
▁тех	-2494
▁ува	-2495
▁уши	-2496
▁хля	-2497
▁хра	-2498
▁хъл	-2499
▁яро	-2500
волен	-2501
вярно	-2502
графи	-2503
джият	-2504
дните	-2505
дното	-2506
жност	-2507
крови	-2508
късна	-2509
лкана	-2510
ловко	-2511
ложен	-2512
лости	-2513
мисли	-2514
мъкна	-2515
никна	-2516
никът	-2517
ремен	-2518
силно	-2519
ските	-2520
тегли	-2521
чките	-2522
шките	-2523
щение	-2524
▁Баба	-2525
▁Боже	-2526
▁Кака	-2527
▁Мето	-2528
▁Може	-2529
▁Нищо	-2530
▁След	-2531
▁Стра	-2532
▁бели	-2533
▁богу	-2534
▁бръм	-2535
▁глав	-2536
▁град	-2537
▁диво	-2538
▁доде	-2539
▁дяда	-2540
▁зава	-2541
▁зада	-2542
▁зака	-2543
▁зали	-2544
▁запя	-2545
▁идеа	-2546
▁избу	-2547
▁изда	-2548
▁изпу	-2549
▁киле	-2550
▁коле	-2551
▁лива	-2552
▁любе	-2553
▁миря	-2554
▁мъже	-2555
▁нема	-2556
▁ново	-2557
▁ножа	-2558
▁обви	-2559
▁обик	-2560
▁обра	-2561
▁огън	-2562
▁омра	-2563
▁ония	-2564
▁пепе	-2565
▁поза	-2566
▁поко	-2567
▁рано	-2568
▁сили	-2569
▁смее	-2570
▁смях	-2571
▁също	-2572
▁този	-2573
▁топо	-2574
▁усил	-2575
▁химн	-2576
▁ходи	-2577
▁цига	-2578
▁чаша	-2579
▁чучу	-2580
бираше	-2581
варяше	-2582
здраве	-2583
караха	-2584
лагоро	-2585
мислен	-2586
насяше	-2587
ницата	-2588
нското	-2589
стенин	-2590
телния	-2591
хвърли	-2592
щаваха	-2593
щаваше	-2594
▁Всеки	-2595
▁Драко	-2596
▁Казва	-2597
▁Попов	-2598
▁Райно	-2599
▁Шериф	-2600
▁безна	-2601
▁бутна	-2602
▁важно	-2603
▁ветре	-2604
▁викна	-2605
▁влазя	-2606
▁връща	-2607
▁върху	-2608
▁вярно	-2609
▁глухи	-2610
▁голям	-2611
▁гърло	-2612
▁даска	-2613
▁добър	-2614
▁дълга	-2615
▁държа	-2616
▁дявол	-2617
▁едвам	-2618
▁жално	-2619
▁заклю	-2620
▁заслу	-2621
▁знаем	-2622
▁изсмя	-2623
▁имаме	-2624
▁киска	-2625
▁книги	-2626
▁книжа	-2627
▁консу	-2628
▁ламби	-2629
▁легна	-2630
▁лесно	-2631
▁мисля	-2632
▁мълчи	-2633
▁напре	-2634
▁небре	-2635
▁нежно	-2636
▁онова	-2637
▁опита	-2638
▁оттам	-2639
▁падне	-2640
▁панта	-2641
▁плаши	-2642
▁помня	-2643
▁почер	-2644
▁пресе	-2645
▁проти	-2646
▁пълно	-2647
▁разбо	-2648
▁разви	-2649
▁разсе	-2650
▁разхо	-2651
▁света	-2652
▁скрие	-2653
▁слабо	-2654
▁слава	-2655
▁смърт	-2656
▁спаси	-2657
▁става	-2658
▁стига	-2659
▁стран	-2660
▁същия	-2661
▁тежко	-2662
▁хайду	-2663
▁челяк	-2664
▁яката	-2665
джийски	-2666
лението	-2667
ненията	-2668
ничките	-2669
нчовата	-2670
▁Бунтов	-2671
▁Влашко	-2672
▁Доктор	-2673
▁Затова	-2674
▁Иванов	-2675
▁Кралич	-2676
▁Левски	-2677
▁Туркия	-2678
▁бурята	-2679
▁бъдеще	-2680
▁весели	-2681
▁видяха	-2682
▁впечат	-2683
▁въжето	-2684
▁говори	-2685
▁гората	-2686
▁думата	-2687
▁зададе	-2688
▁застра	-2689
▁знаеха	-2690
▁издума	-2691
▁излазя	-2692
▁излиза	-2693
▁изпраз	-2694
▁именно	-2695
▁кафене	-2696
▁комита	-2697
▁комуто	-2698
▁къщата	-2699
▁милост	-2700
▁млъкна	-2701
▁морава	-2702
▁небето	-2703
▁новини	-2704
▁новото	-2705
▁някого	-2706
▁обръща	-2707
▁пищова	-2708
▁пламне	-2709
▁полека	-2710
▁порази	-2711
▁посети	-2712
▁пригот	-2713
▁приема	-2714
▁прохла	-2715
▁самата	-2716
▁светли	-2717
▁своите	-2718
▁силите	-2719
▁страхо	-2720
▁същият	-2721
▁толкоз	-2722
▁търгов	-2723
▁устата	-2724
▁фигура	-2725
▁хладно	-2726
▁хората	-2727
▁щастие	-2728
рителите	-2729
треперан	-2730
▁Балкана	-2731
▁Докторе	-2732
▁Дяконът	-2733
▁Колкото	-2734
▁всякога	-2735
▁възрази	-2736
▁вярваше	-2737
▁гърлото	-2738
▁дойдоха	-2739
▁другото	-2740
▁жестоко	-2741
▁запозна	-2742
▁изповед	-2743
▁изчерви	-2744
▁книгата	-2745
▁мислеше	-2746
▁мълчеше	-2747
▁намръще	-2748
▁наоколо	-2749
▁неловко	-2750
▁нетърпе	-2751
▁някакъв	-2752
▁облечен	-2753
▁остаяше	-2754
▁патриот	-2755
▁повърна	-2756
▁порасте	-2757
▁портата	-2758
▁природа	-2759
▁приятно	-2760
▁първото	-2761
▁разбере	-2762
▁разбуди	-2763
▁сетрето	-2764
▁сладост	-2765
▁следеше	-2766
▁смутено	-2767
▁страшна	-2768
▁сянката	-2769
▁участие	-2770
▁шпионин	-2771
ствително	-2772
чувствува	-2773
▁Викентия	-2774
▁Господин	-2775
▁Изведнъж	-2776
▁Пехливан	-2777
▁Пиронков	-2778
▁Серафима	-2779
▁Трябваше	-2780
▁безпокой	-2781
▁високите	-2782
▁вълнение	-2783
▁гостенин	-2784
▁движение	-2785
▁довечера	-2786
▁заповяда	-2787
▁изведнъж	-2788
▁наричаше	-2789
▁нещастие	-2790
▁обърнаха	-2791
▁победоно	-2792
▁побледня	-2793
▁прегледа	-2794
▁прибърза	-2795
▁привлече	-2796
▁прошушна	-2797
▁разказва	-2798
▁Ганковото	-2799
▁бунтовник	-2800
▁панталони	-2801
▁планината	-2802
▁разбираше	-2803
▁разговора	-2804
▁страдания	-2805
▁удивление	-2806
▁Любобратич	-2807
▁внимателно	-2808
▁политиката	-2809
▁развълнува	-2810
▁разтреперан	-2811
▁Петканчовата	-2812
▁благодарение	-2813
▁знаменателно	-2814
▁продължаваше	-2815
▁Мердевенджиева	-2816
).	-2817
Ге	-2818
Го	-2819
Да	-2820
жу	-2821
пъ	-2822
щя	-2823
ъг	-2824
ъф	-2825
як	-2826
Кли	-2827
бал	-2828
бро	-2829
гай	-2830
гат	-2831
ген	-2832
гиз	-2833
гни	-2834
гор	-2835
дае	-2836
дки	-2837
дох	-2838
дру	-2839
зах	-2840
зка	-2841
зма	-2842
зът	-2843
как	-2844
коп	-2845
лас	-2846
лей	-2847
мат	-2848
мба	-2849
мши	-2850
мял	-2851
нем	-2852
ото	-2853
пан	-2854
пло	-2855
пол	-2856
пъл	-2857
сят	-2858
тал	-2859
тмо	-2860
тръ	-2861
хне	-2862
чев	-2863
ъпа	-2864
ява	-2865
▁Ле	-2866
▁Мъ	-2867
▁гу	-2868
▁ек	-2869
▁жъ	-2870
▁зо	-2871
▁св	-2872
▁фу	-2873
Клио	-2874
Неза	-2875
бавя	-2876
боко	-2877
бука	-2878
ваща	-2879
веня	-2880
вера	-2881
вети	-2882
виси	-2883
вува	-2884
дала	-2885
даря	-2886
дина	-2887
доби	-2888
дове	-2889
души	-2890
жена	-2891
живо	-2892
зени	-2893
зина	-2894
зяха	-2895
игра	-2896
кала	-2897
коен	-2898
кува	-2899
лепе	-2900
луга	-2901
мост	-2902
нени	-2903
ново	-2904
нощи	-2905
няха	-2906
пани	-2907
писа	-2908
пнал	-2909
пове	-2910
полу	-2911
рест	-2912
рете	-2913
речи	-2914
рина	-2915
ряза	-2916
сено	-2917
сиан	-2918
сили	-2919
сите	-2920
сква	-2921
сния	-2922
съзи	-2923
таха	-2924
теля	-2925
тени	-2926
хота	-2927
цина	-2928
цият	-2929
чели	-2930
чени	-2931
чест	-2932
чеха	-2933
шени	-2934
щеше	-2935
щият	-2936
ълча	-2937
ъпна	-2938
ясни	-2939
▁Ама	-2940
▁Вся	-2941
▁Два	-2942
▁Дер	-2943
▁Ела	-2944
▁Има	-2945
▁Кли	-2946
▁Спу	-2947
▁бей	-2948
▁бею	-2949
▁бой	-2950
▁вдъ	-2951
▁взи	-2952
▁вку	-2953
▁впи	-2954
▁длъ	-2955
▁дух	-2956
▁кру	-2957
▁луд	-2958
▁мин	-2959
▁мно	-2960
▁мъж	-2961
▁наш	-2962
▁ожи	-2963
▁окъ	-2964
▁пли	-2965
▁пох	-2966
▁пру	-2967
▁скъ	-2968
▁сля	-2969
▁соф	-2970
▁сре	-2971
▁сул	-2972
▁съз	-2973
▁тон	-2974
▁тън	-2975
▁ужа	-2976
▁уко	-2977
▁упо	-2978
▁усе	-2979
▁фар	-2980
▁хри	-2981
▁чре	-2982
▁шеп	-2983
▁яви	-2984
веден	-2985
дваше	-2986
днага	-2987
довол	-2988
държа	-2989
държи	-2990
зките	-2991
ицата	-2992
квата	-2993
клама	-2994
курещ	-2995
лката	-2996
лките	-2997
лязох	-2998
лямсъ	-2999
лясък	-3000
мести	-3001
много	-3002
ндиев	-3003
нения	-3004
нципи	-3005
пката	-3006
преде	-3007
рибал	-3008
ринът	-3009
рност	-3010
рство	-3011
румна	-3012
ръжие	-3013
сваше	-3014
скари	-3015
сните	-3016
споли	-3017
стира	-3018
стове	-3019
сърди	-3020
татък	-3021
телен	-3022
тизъм	-3023
храни	-3024
ченце	-3025
черта	-3026
ческо	-3027
▁Асен	-3028
▁Дими	-3029
▁Иска	-3030
▁Къде	-3031
▁Току	-3032
▁Фран	-3033
▁Хрът	-3034
▁бачо	-3035
▁беда	-3036
▁безо	-3037
▁било	-3038
▁бори	-3039
▁брад	-3040
▁ваше	-3041
▁взел	-3042
▁вода	-3043
▁враг	-3044
▁втре	-3045
▁гнез	-3046
▁гори	-3047
▁гръц	-3048
▁дири	-3049
▁доне	-3050
▁дреб	-3051
▁дъжд	-3052
▁език	-3053
▁заля	-3054
▁зама	-3055
▁зари	-3056
▁защи	-3057
▁звяр	-3058
▁знак	-3059
▁зъби	-3060
▁идем	-3061
▁излъ	-3062
▁изра	-3063
▁имал	-3064
▁исто	-3065
▁йолу	-3066
▁кале	-3067
▁края	-3068
▁крие	-3069
▁купи	-3070
▁къде	-3071
▁лошо	-3072
▁лука	-3073
▁лъжи	-3074
▁млад	-3075
▁мома	-3076
▁музи	-3077
▁мъка	-3078
▁мъчи	-3079
▁наду	-3080
▁надя	-3081
▁наст	-3082
▁наша	-3083
▁ниша	-3084
▁нощя	-3085
▁одоб	-3086
▁озър	-3087
▁окол	-3088
▁оная	-3089
▁осем	-3090
▁отга	-3091
▁отпу	-3092
▁пеша	-3093
▁плач	-3094
▁погу	-3095
▁подо	-3096
▁пожа	-3097
▁посе	-3098
▁почи	-3099
▁прах	-3100
▁пъти	-3101
▁разг	-3102
▁разо	-3103
▁разу	-3104
▁разя	-3105
▁рани	-3106
▁ръчи	-3107
▁сами	-3108
▁свят	-3109
▁сети	-3110
▁сипе	-3111
▁стая	-3112
▁стоя	-3113
▁стък	-3114
▁съоб	-3115
▁съще	-3116
▁твоя	-3117
▁труд	-3118
▁тръг	-3119
▁увле	-3120
▁укра	-3121
▁успе	-3122
▁уста	-3123
▁фото	-3124
▁чита	-3125
▁чуха	-3126
ветата	-3127
ворени	-3128
вореше	-3129
джията	-3130
ливите	-3131
мската	-3132
нощува	-3133
прочем	-3134
рактер	-3135
сетина	-3136
стията	-3137
телите	-3138
тогава	-3139
тринта	-3140
ховете	-3141
читаше	-3142
шаваха	-3143
шината	-3144
▁Видиш	-3145
▁Гледа	-3146
▁Диама	-3147
▁Никой	-3148
▁Погле	-3149
▁Позна	-3150
▁Преди	-3151
▁Слуша	-3152
▁Снощи	-3153
▁Хайде	-3154
▁брошу	-3155
▁винов	-3156
▁възму	-3157
▁възхи	-3158
▁върви	-3159
▁глупа	-3160
▁готви	-3161
▁грижа	-3162
▁гърбо	-3163
▁гърме	-3164
▁далеч	-3165
▁двете	-3166
▁държи	-3167
▁езика	-3168
▁живее	-3169
▁завър	-3170
▁задър	-3171
▁засле	-3172
▁здрав	-3173
▁злове	-3174
▁идеха	-3175
▁идиот	-3176
▁избър	-3177
▁изтре	-3178
▁кажеш	-3179
▁казах	-3180
▁криво	-3181
▁майко	-3182
▁махна	-3183
▁мечка	-3184
▁могат	-3185
▁момче	-3186
▁моята	-3187
▁мрака	-3188
▁надви	-3189
▁назад	-3190
▁напра	-3191
▁натру	-3192
▁некол	-3193
▁нямам	-3194
▁облек	-3195
▁пепел	-3196
▁плаща	-3197
▁погре	-3198
▁погъл	-3199
▁подви	-3200
▁подле	-3201
▁позла	-3202
▁покло	-3203
▁покой	-3204
▁потър	-3205
▁прати	-3206
▁пусто	-3207
▁пушка	-3208
▁пълна	-3209
▁разбу	-3210
▁сваля	-3211
▁силен	-3212
▁скръб	-3213
▁случи	-3214
▁срещу	-3215
▁старо	-3216
▁стена	-3217
▁съзна	-3218
▁тайно	-3219
▁тегли	-3220
▁труда	-3221
▁увери	-3222
▁унищо	-3223
▁усети	-3224
▁ухото	-3225
▁чемши	-3226
▁чиито	-3227
▁шумно	-3228
верчиво	-3229
гически	-3230
лически	-3231
надейно	-3232
питният	-3233
телства	-3234
шителен	-3235
щението	-3236
▁Водени	-3237
▁Куцият	-3238
▁безгри	-3239
▁безопа	-3240
▁блъска	-3241
▁ветрец	-3242
▁виждам	-3243
▁викове	-3244
▁винаги	-3245
▁влезна	-3246
▁въведе	-3247
▁гледах	-3248
▁грешка	-3249
▁далеко	-3250
▁джавка	-3251
▁додето	-3252
▁донесе	-3253
▁дълбок	-3254
▁едного	-3255
▁жалост	-3256
▁женски	-3257
▁затече	-3258
▁зелени	-3259
▁зрител	-3260
▁инстин	-3261
▁исполи	-3262
▁камъни	-3263
▁колчем	-3264
▁комите	-3265
▁косата	-3266
▁красно	-3267
▁кучето	-3268
▁магаре	-3269
▁масата	-3270
▁мрачно	-3271
▁наляга	-3272
▁нашите	-3273
▁носеше	-3274
▁нямало	-3275
▁обясни	-3276
▁отдале	-3277
▁отдека	-3278
▁отърве	-3279
▁очерта	-3280
▁парите	-3281
▁питаше	-3282
▁повика	-3283
▁полови	-3284
▁потъна	-3285
▁премеж	-3286
▁призна	-3287
▁пръсна	-3288
▁първен	-3289
▁светна	-3290
▁свещта	-3291
▁свърши	-3292
▁спусна	-3293
▁стояха	-3294
▁стряха	-3295
▁стъпка	-3296
▁стъпки	-3297
▁сърдит	-3298
▁същата	-3299
▁същото	-3300
▁треска	-3301
▁уверен	-3302
▁уплаши	-3303
▁услуга	-3304
▁хрътка	-3305
▁целуна	-3306
▁чашата	-3307
▁червен	-3308
▁човече	-3309
Независи	-3310
лагодаря	-3311
▁Вратата	-3312
▁Манолов	-3313
▁Селямсъ	-3314
▁Сърцето	-3315
▁Франгов	-3316
▁апостол	-3317
▁беювица	-3318
▁видяхме	-3319
▁възпита	-3320
▁гарибал	-3321
▁главите	-3322
▁гледаха	-3323
▁готвеше	-3324
▁графиня	-3325
▁двайсет	-3326
▁другиго	-3327
▁дружина	-3328
▁ефендим	-3329
▁живееше	-3330
▁завърна	-3331
▁затвори	-3332
▁извърши	-3333
▁история	-3334
▁каквото	-3335
▁клевета	-3336
▁нарочно	-3337
▁недоуме	-3338
▁никакъв	-3339
▁някакви	-3340
▁някакво	-3341
▁осветли	-3342
▁повтори	-3343
▁погледа	-3344
▁подсвир	-3345
▁позволя	-3346
▁помогна	-3347
▁правеха	-3348
▁правеше	-3349
▁прелест	-3350
▁привиде	-3351
▁прочете	-3352
▁пуйките	-3353
▁първите	-3354
▁развали	-3355
▁раздаде	-3356
▁разкажа	-3357
▁растеше	-3358
▁самоуве	-3359
▁светеше	-3360
▁свирепо	-3361
▁сплетни	-3362
▁столове	-3363
▁страдал	-3364
▁страхът	-3365
▁сърцата	-3366
▁устните	-3367
▁челядта	-3368
▁Емексиза	-3369
▁Слънцето	-3370
▁Хаджийке	-3371
▁Хрътката	-3372
▁безнадеж	-3373
▁вестници	-3374
▁внезапно	-3375
▁воденича	-3376
▁възможно	-3377
▁говореше	-3378
▁здравето	-3379
▁излизаше	-3380
▁мълчание	-3381
▁непознат	-3382
▁обикнове	-3383
▁опасност	-3384
▁поздрави	-3385
▁познаваш	-3386
▁потвърди	-3387
▁предните	-3388
▁прекрати	-3389
▁престори	-3390
▁приемаше	-3391
▁принципи	-3392
▁пристъпи	-3393
▁протеста	-3394
▁радостно	-3395
▁разбираш	-3396
▁разпален	-3397
▁револвер	-3398
▁тайнстве	-3399
▁турското	-3400
▁уплашено	-3401
▁хайдутин	-3402
▁характер	-3403
мотевицата	-3404
стрийският	-3405
▁Господине	-3406
▁Клеопатро	-3407
▁Ненадейно	-3408
▁Публиката	-3409
▁заточение	-3410
▁машинално	-3411
▁неколцина	-3412
▁положение	-3413
▁поръчител	-3414
▁пренощува	-3415
▁прехвърли	-3416
▁приказват	-3417
▁природата	-3418
▁револвера	-3419
▁страшната	-3420
▁усмихнато	-3421
▁устремиха	-3422
▁Диамандиев	-3423
▁безпокойно	-3424
▁исполински	-3425
▁месечината	-3426
▁посетители	-3427
▁представля	-3428
▁прозорците	-3429
▁протестира	-3430
▁съчувствие	-3431
Независимост	-3432
▁Любопитният	-3433
▁балканското	-3434
▁българската	-3435
▁негодувание	-3436
▁нетърпеливо	-3437
▁презрително	-3438
▁удовлетворе	-3439
▁чувствуваше	-3440
▁херцеговците	-3441
▁Мердевенджиев	-3442
▁патриотически	-3443
▁представление	-3444
▁приключението	-3445
▁Диарбекирската	-3446
▁представлението	-3447
!…	-3448
.)	-3449
ел	-3450
ин	-3451
ир	-3452
нд	-3453
нт	-3454
фу	-3455
“!	-3456
“;	-3457
▁V	-3458
ари	-3459
бец	-3460
бия	-3461
вои	-3462
въз	-3463
гар	-3464
гля	-3465
гом	-3466
дее	-3467
дем	-3468
дий	-3469
еро	-3470
жем	-3471
жеш	-3472
зан	-3473
зве	-3474
зин	-3475
зло	-3476
кат	-3477
кос	-3478
къл	-3479
лат	-3480
лау	-3481
лин	-3482
лон	-3483
лто	-3484
лци	-3485
лчо	-3486
мер	-3487
мни	-3488
мон	-3489
мпа	-3490
мру	-3491
нат	-3492
нге	-3493
неш	-3494
ниш	-3495
нчи	-3496
няв	-3497
она	-3498
ооо	-3499
бел	-3500
гре	-3501
кре	-3502
ота	-3503
пер	-3504
пец	-3505
рга	-3506
рие	-3507
рък	-3508
рях	-3509
спа	-3510
сфе	-3511
тва	-3512
фия	-3513
ход	-3514
хот	-3515
хра	-3516
циа	-3517
чва	-3518
чее	-3519
шат	-3520
шиш	-3521
шми	-3522
щен	-3523
ъня	-3524
ъра	-3525
▁Въ	-3526
▁Ех	-3527
▁Ре	-3528
▁вс	-3529
▁гю	-3530
▁ей	-3531
▁зя	-3532
▁ор	-3533
▁ря	-3534
▁ся	-3535
▁уж	-3536
▁ъг	-3537
▁яд	-3538
били	-3539
бича	-3540
бори	-3541
брой	-3542
вала	-3543
ваме	-3544
вано	-3545
вина	-3546
гант	-3547
гове	-3548
гово	-3549
гора	-3550
дали	-3551
дера	-3552
деса	-3553
дици	-3554
днал	-3555
днъж	-3556
долу	-3557
допа	-3558
душе	-3559
ждаш	-3560
живя	-3561
зари	-3562
знал	-3563
зови	-3564
зрак	-3565
кали	-3566
кана	-3567
кане	-3568
каше	-3569
кият	-3570
клет	-3571
крещ	-3572
кръв	-3573
лава	-3574
леко	-3575
ливи	-3576
лица	-3577
лопа	-3578
лосо	-3579
лоче	-3580
лучи	-3581
любо	-3582
лямо	-3583
лята	-3584
мено	-3585
мори	-3586
мото	-3587
наят	-3588
неца	-3589
нина	-3590
нкин	-3591
обла	-3592
пата	-3593
пера	-3594
пеше	-3595
прав	-3596
птем	-3597
реха	-3598
рова	-3599
iv	-3600
▁l	-3601
бур	-3602
вие	-3603
рад	-3604
▁гъ	-3605
▁ля	-3606
▁хъ	-3607
вода	-3608
граф	-3609
днич	-3610
коха	-3611
лаке	-3612
мето	-3613
мско	-3614
нера	-3615
рния	-3616
руши	-3617
ряла	-3618
сана	-3619
сиян	-3620
ския	-3621
соха	-3622
сяха	-3623
тика	-3624
тики	-3625
тука	-3626
тури	-3627
туха	-3628
увай	-3629
хнал	-3630
хуба	-3631
чина	-3632
чиха	-3633
чове	-3634
чуди	-3635
чука	-3636
шава	-3637
шеме	-3638
шена	-3639
шето	-3640
шулу	-3641
шумя	-3642
щите	-3643
щяха	-3644
ъмня	-3645
▁Без	-3646
▁Гла	-3647
▁Гре	-3648
▁Две	-3649
▁Еди	-3650
▁Наш	-3651
▁Пис	-3652
▁Поя	-3653
▁Спо	-3654
▁Тра	-3655
▁Тре	-3656
▁Хай	-3657
▁Хри	-3658
▁Чер	-3659
▁Щом	-3660
▁бор	-3661
▁бръ	-3662
▁бря	-3663
▁вди	-3664
▁влю	-3665
▁вън	-3666
▁дим	-3667
▁дол	-3668
▁душ	-3669
▁зле	-3670
▁кал	-3671
▁кре	-3672
▁къл	-3673
▁лай	-3674
▁мир	-3675
▁мля	-3676
▁неп	-3677
▁опи	-3678
▁опо	-3679
▁опу	-3680
▁отс	-3681
▁пие	-3682
▁по̀	-3683
▁пое	-3684
▁поу	-3685
▁рев	-3686
▁сил	-3687
▁сни	-3688
▁спу	-3689
▁сук	-3690
▁тлъ	-3691
▁тря	-3692
▁тум	-3693
▁тъл	-3694
▁убе	-3695
▁уме	-3696
▁ути	-3697
▁уха	-3698
▁ухи	-3699
▁цъф	-3700
▁чин	-3701
▁чул	-3702
▁щял	-3703
▁щях	-3704
▁яде	-3705
▁ядо	-3706
близо	-3707
богом	-3708
бърка	-3709
вайте	-3710
вижен	-3711
вката	-3712
ворно	-3713
врите	-3714
герни	-3715
глася	-3716
гната	-3717
гради	-3718
днаха	-3719
дника	-3720
дният	-3721
душни	-3722
дъхна	-3723
ероте	-3724
жават	-3725
йдути	-3726
йното	-3727
кване	-3728
клица	-3729
колчо	-3730
ланхо	-3731
ления	-3732
лците	-3733
любие	-3734
мбара	-3735
мейни	-3736
мията	-3737
мната	-3738
нички	-3739
нната	-3740
прави	-3741
рецът	-3742
ровим	-3743
сента	-3744
скочи	-3745
сница	-3746
стана	-3747
стига	-3748
уваха	-3749
хвана	-3750
хната	-3751
хтене	-3752
чаква	-3753
чната	-3754
чните	-3755
чният	-3756
шване	-3757
шваше	-3758
шения	-3759
шният	-3760
шното	-3761
шъпна	-3762
щеска	-3763
▁Васи	-3764
▁Вели	-3765
▁Даже	-3766
▁Заве	-3767
▁Илий	-3768
▁Инак	-3769
▁Кафе	-3770
▁Лека	-3771
▁Мене	-3772
▁Нали	-3773
▁Нещо	-3774
▁Нима	-3775
▁Огън	-3776
▁Отец	-3777
▁Отче	-3778
▁Пръв	-3779
▁Радо	-3780
▁Соло	-3781
▁Този	-3782
▁Тука	-3783
▁Утре	-3784
▁Цари	-3785
▁Чети	-3786
▁анти	-3787
▁атмо	-3788
▁бащи	-3789
▁бега	-3790
▁безс	-3791
▁бива	-3792
▁брой	-3793
▁брът	-3794
▁буре	-3795
▁вери	-3796
▁геро	-3797
▁гняв	-3798
▁голо	-3799
▁горе	-3800
▁гост	-3801
▁гроб	-3802
▁гръб	-3803
▁гръм	-3804
▁дава	-3805
▁дали	-3806
▁дека	-3807
▁дели	-3808
▁дока	-3809
▁доко	-3810
▁допу	-3811
▁дръв	-3812
▁дръз	-3813
▁духа	-3814
▁жени	-3815
▁живи	-3816
▁заби	-3817
▁забо	-3818
▁заме	-3819
▁зеле	-3820
▁знам	-3821
▁изби	-3822
▁изди	-3823
▁изче	-3824
▁имаш	-3825
▁клас	-3826
▁кова	-3827
▁коко	-3828
▁коня	-3829
▁крат	-3830
▁късо	-3831
▁къщи	-3832
▁леко	-3833
▁лоша	-3834
▁лоши	-3835
▁луди	-3836
▁лъжа	-3837
▁люби	-3838
▁мест	-3839
▁моли	-3840
▁море	-3841
▁мрак	-3842
▁мъче	-3843
▁нами	-3844
▁наму	-3845
▁напо	-3846
▁нара	-3847
▁нати	-3848
▁наши	-3849
▁нека	-3850
▁неме	-3851
▁неми	-3852
▁нему	-3853
▁носи	-3854
▁нося	-3855
▁опит	-3856
▁отко	-3857
▁отно	-3858
▁отсъ	-3859
▁пази	-3860
▁пели	-3861
▁поиз	-3862
▁пона	-3863
▁попе	-3864
▁поро	-3865
▁пост	-3866
▁пото	-3867
▁прии	-3868
▁расо	-3869
▁рата	-3870
▁рели	-3871
▁рече	-3872
▁речи	-3873
▁рица	-3874
▁родо	-3875
▁рояк	-3876
▁русо	-3877
▁свой	-3878
▁сест	-3879
▁скро	-3880
▁слън	-3881
▁смея	-3882
▁спра	-3883
▁срам	-3884
▁сухо	-3885
▁тато	-3886
▁твое	-3887
▁умно	-3888
▁умре	-3889
▁флау	-3890
▁хляб	-3891
▁цяло	-3892
▁част	-3893
▁чело	-3894
▁чува	-3895
▁чудо	-3896
▁чудя	-3897
▁щете	-3898
▁юмру	-3899
▁ясен	-3900
Генове	-3901
бедимо	-3902
високо	-3903
вления	-3904
горица	-3905
гуваше	-3906
даваше	-3907
дадоха	-3908
довата	-3909
йската	-3910
йското	-3911
ковете	-3912
кръсти	-3913
лексан	-3914
лестно	-3915
лището	-3916
ловито	-3917
лтоолу	-3918
ляваше	-3919
новата	-3920
пираха	-3921
против	-3922
репост	-3923
роятно	-3924
рската	-3925
рският	-3926
ръжени	-3927
саните	-3928
сякъде	-3929
тински	-3930
хвърля	-3931
цалите	-3932
шаваше	-3933
▁Браво	-3934
▁Вземи	-3935
▁Видин	-3936
▁Вижте	-3937
▁Влезе	-3938
▁Девой	-3939
▁Дерби	-3940
▁Добър	-3941
▁Искаш	-3942
▁Какви	-3943
▁Какъв	-3944
▁Който	-3945
▁Колко	-3946
▁Колчо	-3947
▁Макар	-3948
▁Мигар	-3949
▁Нисто	-3950
▁Очите	-3951
▁Петко	-3952
▁Радка	-3953
▁Слепе	-3954
▁Събка	-3955
▁актьо	-3956
▁безоч	-3957
▁безсъ	-3958
▁близо	-3959
▁братя	-3960
▁бързе	-3961
▁вашия	-3962
▁вечно	-3963
▁взема	-3964
▁взета	-3965
▁видят	-3966
▁виеше	-3967
▁власт	-3968
▁влиза	-3969
▁врява	-3970
▁всеми	-3971
▁всред	-3972
▁втора	-3973
▁второ	-3974
▁вчера	-3975
▁възбу	-3976
▁върха	-3977
▁вятър	-3978
▁герой	-3979
▁горчи	-3980
▁госта	-3981
▁готов	-3982
▁граде	-3983
▁гръмо	-3984
▁давам	-3985
▁дигне	-3986
▁дойда	-3987
▁допре	-3988
▁допъл	-3989
▁досто	-3990
▁дошли	-3991
▁друже	-3992
▁дълги	-3993
▁дърво	-3994
▁дякон	-3995
▁желае	-3996
▁загат	-3997
▁задъл	-3998
▁занят	-3999
▁запад	-4000
▁запре	-4001
▁знаех	-4002
▁знаят	-4003
▁идеал	-4004
▁избра	-4005
▁изкар	-4006
▁излез	-4007
▁интри	-4008
▁искра	-4009
▁кажем	-4010
▁карам	-4011
▁карти	-4012
▁килия	-4013
▁книга	-4014
▁крамо	-4015
▁кърва	-4016
▁лакът	-4017
▁лекар	-4018
▁лъска	-4019
▁малки	-4020
▁месец	-4021
▁места	-4022
▁метох	-4023
▁мириз	-4024
▁моето	-4025
▁моите	-4026
▁накло	-4027
▁напро	-4028
▁насла	-4029
▁натър	-4030
▁нашия	-4031
▁новия	-4032
▁нужно	-4033
▁нямат	-4034
▁обезо	-4035
▁огъня	-4036
▁озари	-4037
▁опира	-4038
▁остри	-4039
▁отвра	-4040
▁отвън	-4041
▁откро	-4042
▁памет	-4043
▁пееха	-4044
▁пееше	-4045
▁печал	-4046
▁подоб	-4047
▁подоз	-4048
▁пожар	-4049
▁пораз	-4050
▁поста	-4051
▁почва	-4052
▁праща	-4053
▁преоб	-4054
▁препо	-4055
▁проро	-4056
▁прото	-4057
▁псета	-4058
▁птичи	-4059
▁пусне	-4060
▁пълни	-4061
▁разби	-4062
▁разсъ	-4063
▁руска	-4064
▁руски	-4065
▁сваха	-4066
▁свежи	-4067
▁свърш	-4068
▁сдоби	-4069
▁север	-4070
▁силна	-4071
▁симпа	-4072
▁сипеи	-4073
▁скрит	-4074
▁слепе	-4075
▁слова	-4076
▁слово	-4077
▁спрял	-4078
▁сцена	-4079
▁събра	-4080
▁съдба	-4081
▁сърца	-4082
▁тъмна	-4083
▁тъмно	-4084
▁тяхна	-4085
▁убива	-4086
▁устни	-4087
▁ушите	-4088
▁фанта	-4089
▁хваща	-4090
▁хълца	-4091
▁цилин	-4092
▁чисто	-4093
▁чудно	-4094
▁чужди	-4095
▁ядеше	-4096
вичките	-4097
вличаше	-4098
годишен	-4099
дълбоко	-4100
жението	-4101
зенград	-4102
кламира	-4103
лезнено	-4104
лочерко	-4105
любопит	-4106
мислено	-4107
ническа	-4108
рестува	-4109
сняваше	-4110
ствуват	-4111
телност	-4112
тинката	-4113
хотворе	-4114
черката	-4115
ческото	-4116
шеметен	-4117
шително	-4118
▁Вашите	-4119
▁Гинкин	-4120
▁Гледай	-4121
▁Загора	-4122
▁Защото	-4123
▁Излезе	-4124
▁Йероте	-4125
▁Немско	-4126
▁Остави	-4127
▁Откъде	-4128
▁Повика	-4129
▁Учител	-4130
▁безгра	-4131
▁благос	-4132
▁бузите	-4133
▁бурена	-4134
▁бъдещи	-4135
▁бягаше	-4136
▁вашата	-4137
▁величе	-4138
▁вечеря	-4139
▁висока	-4140
▁влюбен	-4141
▁влязъл	-4142
▁водопа	-4143
▁врачка	-4144
▁въздух	-4145
▁голяма	-4146
▁грозен	-4147
▁гръцко	-4148
▁гърмял	-4149
▁дадоха	-4150
▁дъното	-4151
▁едната	-4152
▁жертва	-4153
▁забеля	-4154
▁завист	-4155
▁занаят	-4156
▁зашумя	-4157
▁здание	-4158
▁злобно	-4159
▁злодей	-4160
▁знаете	-4161
▁играят	-4162
▁игумен	-4163
▁избавя	-4164
▁изгубе	-4165
▁изгуби	-4166
▁изказа	-4167
▁изкрещ	-4168
▁измени	-4169
▁изрева	-4170
▁казваш	-4171
▁караби	-4172
▁консул	-4173
▁кротко	-4174
▁кучета	-4175
▁лукаво	-4176
▁месеца	-4177
▁минута	-4178
▁минути	-4179
▁миряни	-4180
▁мислиш	-4181
▁мнение	-4182
▁можете	-4183
▁мъртве	-4184
▁мъртъв	-4185
▁навъси	-4186
▁нагоре	-4187
▁надали	-4188
▁наказа	-4189
▁написа	-4190
▁настро	-4191
▁настръ	-4192
▁негова	-4193
▁негово	-4194
▁никога	-4195
▁някога	-4196
▁някъде	-4197
▁облага	-4198
▁огледа	-4199
▁ограда	-4200
▁опасен	-4201
▁опасна	-4202
▁оръжие	-4203
▁отдето	-4204
▁отишъл	-4205
▁питаха	-4206
▁плачат	-4207
▁поздра	-4208
▁поиска	-4209
▁положе	-4210
▁поръча	-4211
▁посочи	-4212
▁постоя	-4213
▁почука	-4214
▁правят	-4215
▁практи	-4216
▁предпа	-4217
▁прехла	-4218
▁пригла	-4219
▁прикри	-4220
▁пруста	-4221
▁псалта	-4222
▁размиш	-4223
▁ревеше	-4224
▁реката	-4225
▁речено	-4226
▁розови	-4227
▁ролята	-4228
▁самите	-4229
▁светка	-4230
▁свърза	-4231
▁септем	-4232
▁сечеше	-4233
▁скимна	-4234
▁смъкна	-4235
▁според	-4236
▁старец	-4237
▁стисна	-4238
▁стопан	-4239
▁страст	-4240
▁твоето	-4241
▁твоята	-4242
▁театро	-4243
▁тръпки	-4244
▁турско	-4245
▁туряше	-4246
▁увлека	-4247
▁удържа	-4248
▁укориз	-4249
▁филосо	-4250
▁хилядо	-4251
▁ходеше	-4252
▁христи	-4253
▁хубаве	-4254
▁целува	-4255
▁цялото	-4256
▁чакаше	-4257
▁чардак	-4258
▁честен	-4259
▁честно	-4260
▁четири	-4261
▁човеци	-4262
▁шумяха	-4263
Геновева	-4264
кламация	-4265
копляска	-4266
кровител	-4267
лафранга	-4268
ственият	-4269
▁Веднага	-4270
▁Впрочем	-4271
▁Господа	-4272
▁Госпожи	-4273
▁Двамата	-4274
▁Единият	-4275
▁Кадията	-4276
▁Кириака	-4277
▁Кириако	-4278
▁Маркови	-4279
▁Навярно	-4280
▁Николчо	-4281
▁Павлаки	-4282
▁Песента	-4283
▁Руссиян	-4284
▁атмосфе	-4285
▁бабичка	-4286
▁борбата	-4287
▁вечерта	-4288
▁времена	-4289
▁времето	-4290
▁всичкия	-4291
▁въодуше	-4292
▁въпроса	-4293
▁въртеше	-4294
▁госпожи	-4295
▁грабнат	-4296
▁добрите	-4297
▁доверие	-4298
▁доволен	-4299
▁докторе	-4300
▁докторо	-4301
▁другаря	-4302
▁другата	-4303
▁другиму	-4304
▁дългата	-4305
▁дървета	-4306
▁задовол	-4307
▁задържи	-4308
▁заключи	-4309
▁заповед	-4310
▁заранта	-4311
▁заровим	-4312
▁засрами	-4313
▁зачуден	-4314
▁зловещи	-4315
▁знакове	-4316
▁играеше	-4317
▁игумене	-4318
▁избухна	-4319
▁избягал	-4320
▁извърна	-4321
▁излязъл	-4322
▁какъвто	-4323
▁калугер	-4324
▁книжата	-4325
▁комшулу	-4326
▁крепост	-4327
▁кръвник	-4328
▁куршума	-4329
▁листата	-4330
▁магерни	-4331
▁меланхо	-4332
▁миндера	-4333
▁младата	-4334
▁мнозина	-4335
▁момчето	-4336
▁мълвата	-4337
▁навътре	-4338
▁надясно	-4339
▁настана	-4340
▁нататък	-4341
▁невинен	-4342
▁неподви	-4343
▁обиколи	-4344
▁отгадае	-4345
▁паднаха	-4346
▁подигра	-4347
▁познава	-4348
▁поправи	-4349
▁послови	-4350
▁пошушна	-4351
▁предмет	-4352
▁пресече	-4353
▁призрак	-4354
▁причини	-4355
▁проклет	-4356
▁пропаст	-4357
▁разгово	-4358
▁разтуха	-4359
▁сваляше	-4360
▁семейни	-4361
▁слабост	-4362
▁славата	-4363
▁спечели	-4364
▁спокоен	-4365
▁станало	-4366
▁старите	-4367
▁странно	-4368
▁студено	-4369
▁султана	-4370
▁техните	-4371
▁ударите	-4372
▁устрели	-4373
▁хамбара	-4374
▁харсъзи	-4375
▁хвърлят	-4376
▁царство	-4377
▁царщина	-4378
▁чардаци	-4379
▁червено	-4380
▁чувства	-4381
▁шепнеше	-4382
▁Балтоолу	-4383
▁Богороди	-4384
▁Бъзуняка	-4385
▁Геновеви	-4386
▁Краличев	-4387
▁Наздраве	-4388
▁Натанаил	-4389
▁Оставете	-4390
▁Познаваш	-4391
▁Слепецът	-4392
▁Херцегов	-4393
▁Христина	-4394
▁Цариград	-4395
▁бабината	-4396
▁благораз	-4397
▁бледност	-4398
▁брадвата	-4399
▁българин	-4400
▁въздъхна	-4401
▁големите	-4402
▁гологлав	-4403
▁джавкане	-4404
▁донасяше	-4405
▁достигна	-4406
▁духовете	-4407
▁жаловито	-4408
▁избягнал	-4409
▁излазяха	-4410
▁изпляска	-4411
▁изпразни	-4412
▁коленете	-4413
▁кръстеше	-4414
▁ливадата	-4415
▁миналото	-4416
▁минуваха	-4417
▁надникна	-4418
▁наздрави	-4419
▁намираше	-4420
▁направих	-4421
▁небрежно	-4422
▁неговото	-4423
▁неизвест	-4424
▁останало	-4425
▁отворена	-4426
▁петдесет	-4427
▁плесница	-4428
▁поглежда	-4429
▁подаваше	-4430
▁подхвана	-4431
▁политика	-4432
▁половина	-4433
▁попарена	-4434
▁последен	-4435
▁прегръща	-4436
▁прегърна	-4437
▁прекъсна	-4438
▁премести	-4439
▁престана	-4440
▁притвори	-4441
▁пришушна	-4442
▁приятели	-4443
▁революци	-4444
▁свободен	-4445
▁сериозен	-4446
▁слънцето	-4447
▁смущение	-4448
▁страстно	-4449
▁стряхата	-4450
▁стълбите	-4451
▁стъпките	-4452
▁сутринта	-4453
▁татовата	-4454
▁търговци	-4455
▁угрижено	-4456
▁умствено	-4457
▁усилваше	-4458
▁учителка	-4459
▁учителят	-4460
▁хвърлиха	-4461
▁хвърляше	-4462
▁хрътката	-4463
▁черквата	-4464
▁щастлива	-4465
▁щастливо	-4466
▁Кримската	-4467
▁Пехливана	-4468
▁Подгорица	-4469
▁Слугинята	-4470
▁безобрази	-4471
▁белочерко	-4472
▁благодаря	-4473
▁брошурата	-4474
▁българска	-4475
▁виновника	-4476
▁въоръжени	-4477
▁домашните	-4478
▁държавата	-4479
▁заслужава	-4480
▁затворена	-4481
▁зашеметен	-4482
▁зрителите	-4483
▁извикваше	-4484
▁изпращаше	-4485
▁историята	-4486
▁килерчето	-4487
▁ламбицата	-4488
▁мъчително	-4489
▁направили	-4490
▁настоятел	-4491
▁нещастния	-4492
▁опасности	-4493
▁парцалите	-4494
▁показваше	-4495
▁пребледня	-4496
▁прекрасна	-4497
▁премеждия	-4498
▁противоре	-4499
▁развалина	-4500
▁слугинята	-4501
▁сплетница	-4502
▁страдание	-4503
▁трепереше	-4504
▁усмихваше	-4505
▁усмихнаха	-4506
▁фотографи	-4507
▁хладнокръ	-4508
▁черковата	-4509
▁Воденицата	-4510
▁Естествено	-4511
▁Селямсъзът	-4512
▁Стефчовото	-4513
▁благороден	-4514
▁благородна	-4515
▁вниманието	-4516
▁вълненията	-4517
▁дръзновено	-4518
▁запознахме	-4519
▁заптиетата	-4520
▁калугерици	-4521
▁ловджийски	-4522
▁мартинката	-4523
▁напрегнато	-4524
▁недоумение	-4525
▁непобедимо	-4526
▁неподвижен	-4527
▁облекчение	-4528
▁отговаряше	-4529
▁познайници	-4530
▁покровител	-4531
▁последстви	-4532
▁приятелите	-4533
▁прозорчето	-4534
▁разбойници	-4535
▁разказваше	-4536
▁разправяше	-4537
▁ученичките	-4538
▁физиономия	-4539
▁Любобратича	-4540
▁Любобратичи	-4541
▁Появлението	-4542
▁безопасност	-4543
▁задоволство	-4544
▁любопитство	-4545
▁магерницата	-4546
▁недоверчиво	-4547
▁победоносно	-4548
▁повечерката	-4549
▁политическа	-4550
▁положението	-4551
▁почувствува	-4552
▁прокламация	-4553
▁страданията	-4554
▁тържествена	-4555
▁благодарност	-4556
▁въпросително	-4557
▁действително	-4558
▁манастирския	-4559
▁привързаност	-4560
▁развълнувано	-4561
▁тайнственото	-4562
▁физиономията	-4563
▁впечатлението	-4564
▁гръмотевицата	-4565
бяг	-4566
нсу	-4567
спу	-4568
тук	-4569
шов	-4570
яву	-4571
▁Ци	-4572
▁щу	-4573
Голо	-4574
Иван	-4575
ветя	-4576
гнез	-4577
днем	-4578
дъра	-4579
ксия	-4580
лнав	-4581
мъти	-4582
нгел	-4583
ндже	-4584
озно	-4585
орги	-4586
рвай	-4587
сней	-4588
улът	-4589
умът	-4590
унав	-4591
цвет	-4592
чмиш	-4593
чний	-4594
шкия	-4595
ъпка	-4596
▁Дей	-4597
▁Теж	-4598
▁гав	-4599
чке	-4600
пъти	-4601
рвен	-4602
ству	-4603
тлас	-4604
янно	-4605
▁джо	-4606
▁жъл	-4607
▁зву	-4608
▁зет	-4609
▁кьо	-4610
▁лае	-4611
▁лъж	-4612
▁ожу	-4613
▁сух	-4614
▁фес	-4615
▁хан	-4616
▁хап	-4617
▁шуш	-4618
Госпо	-4619
Дунав	-4620
бавля	-4621
бичам	-4622
бягна	-4623
бядът	-4624
висок	-4625
влича	-4626
вника	-4627
ворна	-4628
вувам	-4629
главе	-4630
глото	-4631
душна	-4632
жавам	-4633
изуст	-4634
йвода	-4635
кнало	-4636
кърби	-4637
късне	-4638
ласъм	-4639
ливия	-4640
лизма	-4641
личка	-4642
лъчка	-4643
лъчна	-4644
любец	-4645
лязло	-4646
лянин	-4647
молки	-4648
муква	-4649
мъдри	-4650
мъсти	-4651
несъл	-4652
ничка	-4653
ничък	-4654
новци	-4655
нския	-4656
нтино	-4657
нчеви	-4658
нятия	-4659
образ	-4660
пахме	-4661
пенци	-4662
печат	-4663
плита	-4664
преки	-4665
пския	-4666
птека	-4667
пусне	-4668
рачни	-4669
рисал	-4670
робно	-4671
ръжни	-4672
сиана	-4673
сианн	-4674
славо	-4675
славя	-4676
ствую	-4677
сърде	-4678
съхра	-4679
тивам	-4680
тогиз	-4681
трази	-4682
четен	-4683
чешка	-4684
чоолу	-4685
шкаше	-4686
ъбице	-4687
янска	-4688
ярвай	-4689
▁Баща	-4690
▁Дека	-4691
▁Изла	-4692
▁Илия	-4693
▁Киро	-4694
▁Куза	-4695
▁Моми	-4696
▁Мъже	-4697
▁Общо	-4698
▁Осма	-4699
бум	-4700
съв	-4701
тъй	-4702
хтя	-4703
▁la	-4704
▁Фа	-4705
▁Ша	-4706
Къде	-4707
убум	-4708
▁ваш	-4709
▁осъ	-4710
блика	-4711
зован	-4712
нтски	-4713
проси	-4714
проти	-4715
рният	-4716
стрия	-4717
тлата	-4718
▁Пена	-4719
▁Псал	-4720
▁Свет	-4721
▁Съве	-4722
▁Чове	-4723
▁брое	-4724
▁бяла	-4725
▁ваши	-4726
▁влез	-4727
▁вяра	-4728
▁гъду	-4729
▁гърм	-4730
▁гяву	-4731
▁дваж	-4732
▁дрез	-4733
▁еван	-4734
▁екза	-4735
▁есте	-4736
▁зина	-4737
▁злоб	-4738
▁идеи	-4739
▁изсъ	-4740
▁инак	-4741
▁клон	-4742
▁книж	-4743
▁краи	-4744
▁крот	-4745
▁куфа	-4746
▁къра	-4747
▁къта	-4748
▁къща	-4749
▁лаят	-4750
▁лека	-4751
▁лени	-4752
▁лози	-4753
▁луде	-4754
▁люле	-4755
▁необ	-4756
▁неот	-4757
▁несъ	-4758
▁ножо	-4759
▁обяд	-4760
▁овци	-4761
▁огни	-4762
▁огор	-4763
▁огря	-4764
▁одър	-4765
▁опря	-4766
▁орех	-4767
▁охла	-4768
▁пием	-4769
▁сапу	-4770
▁свен	-4771
▁сеир	-4772
▁скот	-4773
▁скър	-4774
▁слаб	-4775
▁смет	-4776
▁снощ	-4777
▁сухи	-4778
▁тайн	-4779
▁топу	-4780
▁трен	-4781
▁трон	-4782
▁убие	-4783
▁убий	-4784
▁убия	-4785
▁ужас	-4786
▁умря	-4787
▁урок	-4788
▁усет	-4789
▁утри	-4790
▁учуд	-4791
▁фана	-4792
▁феса	-4793
▁хори	-4794
▁цару	-4795
▁цело	-4796
▁цена	-4797
▁цигу	-4798
▁чрез	-4799
мие	-4800
нер	-4801
сей	-4802
сми	-4803
чти	-4804
▁Су	-4805
▁ар	-4806
▁сг	-4807
джия	-4808
жела	-4809
жерт	-4810
кими	-4811
лели	-4812
лкия	-4813
мият	-4814
нача	-4815
нско	-4816
няше	-4817
раши	-4818
риси	-4819
ръки	-4820
умие	-4821
чава	-4822
чака	-4823
чили	-4824
щини	-4825
▁ана	-4826
▁вея	-4827
▁кът	-4828
▁миш	-4829
▁мът	-4830
▁нож	-4831
▁уле	-4832
екими	-4833
ленце	-4834
ризах	-4835
черпа	-4836
чтиво	-4837
▁Знае	-4838
▁Игра	-4839
▁деви	-4840
▁енер	-4841
▁запъ	-4842
▁леки	-4843
▁муха	-4844
▁насе	-4845
▁пища	-4846
▁прев	-4847
▁преж	-4848
▁сгря	-4849
▁улея	-4850
▁чета	-4851
▁чуем	-4852
▁шега	-4853
▁шего	-4854
▁шест	-4855
▁щяха	-4856
▁язви	-4857
Обичам	-4858
бовете	-4859
бройна	-4860
бройни	-4861
воляка	-4862
гиозно	-4863
говаря	-4864
джиите	-4865
екимин	-4866
жатели	-4867
зираше	-4868
кръвно	-4869
латите	-4870
ливост	-4871
лообра	-4872
лугери	-4873
меника	-4874
найсет	-4875
начало	-4876
нджера	-4877
ничаше	-4878
нският	-4879
нуваше	-4880
париси	-4881
перник	-4882
плаква	-4883
пожерт	-4884
правят	-4885
приема	-4886
ренско	-4887
риятен	-4888
румени	-4889
сипаха	-4890
сърден	-4891
тварят	-4892
творно	-4893
телява	-4894
увания	-4895
уснаха	-4896
фендим	-4897
халост	-4898
ченето	-4899
гф	-4900
▁Ж	-4901
ive	-4902
Зор	-4903
бла	-4904
гло	-4905
дии	-4906
дим	-4907
зят	-4908
люб	-4909
мка	-4910
мощ	-4911
мър	-4912
няк	-4913
оне	-4914
пта	-4915
яма	-4916
▁Ло	-4917
▁ур	-4918
Няма	-4919
гфри	-4920
мани	-4921
меда	-4922
обще	-4923
прие	-4924
спот	-4925
▁бер	-4926
▁къщ	-4927
▁ома	-4928
▁оца	-4929
▁тан	-4930
дееше	-4931
дохте	-4932
каите	-4933
рудни	-4934
чаков	-4935
ъпала	-4936
▁Ауст	-4937
▁Бабо	-4938
▁беди	-4939
▁бого	-4940
▁глух	-4941
▁гово	-4942
▁годя	-4943
▁гола	-4944
▁гоне	-4945
▁жито	-4946
▁изва	-4947
▁изпс	-4948
▁изръ	-4949
▁изте	-4950
▁пога	-4951
▁посо	-4952
▁ризи	-4953
▁танц	-4954
▁убих	-4955
▁чели	-4956
виците	-4957
приеме	-4958
птаеха	-4959
рчаков	-4960
чудено	-4961
ълзите	-4962
ълниха	-4963
▁Васил	-4964
▁Взеха	-4965
▁Внеза	-4966
▁Ганка	-4967
▁Ганчо	-4968
▁Графе	-4969
▁Давам	-4970
▁Добро	-4971
▁Дружи	-4972
▁Ивана	-4973
▁Изпит	-4974
▁Кирил	-4975
▁Манол	-4976
▁Одеса	-4977
▁Осман	-4978
▁Плани	-4979
▁Плаче	-4980
▁Право	-4981
▁Райна	-4982
▁Света	-4983
▁Свето	-4984
▁Свобо	-4985
▁София	-4986
▁Страх	-4987
▁Събке	-4988
▁Такъв	-4989
▁Човек	-4990
▁Шумът	-4991
▁барем	-4992
▁безум	-4993
▁бербе	-4994
▁брате	-4995
▁бъдат	-4996
▁венче	-4997
▁ветро	-4998
▁взима	-4999
вро	-5000
дет	-5001
жиз	-5002
лъж	-5003
шав	-5004
▁Лъ	-5005
акво	-5006
вили	-5007
вола	-5008
лимя	-5009
нави	-5010
нява	-5011
рист	-5012
хата	-5013
хаха	-5014
чеви	-5015
шаха	-5016
▁Кое	-5017
▁въд	-5018
▁мог	-5019
▁ред	-5020
▁ъгъ	-5021
Какво	-5022
глаго	-5023
детел	-5024
дохме	-5025
плаши	-5026
тията	-5027
▁Апра	-5028
▁Лъжи	-5029
▁бъда	-5030
▁вили	-5031
▁граб	-5032
▁замя	-5033
▁изха	-5034
▁каса	-5035
▁наве	-5036
▁отзи	-5037
▁отли	-5038
▁отре	-5039
▁писа	-5040
▁пише	-5041
▁пово	-5042
▁сина	-5043
▁смут	-5044
▁тана	-5045
плаших	-5046
шукане	-5047
▁биеше	-5048
▁бойте	-5049
▁болно	-5050
▁будет	-5051
▁видях	-5052
▁викат	-5053
▁вкуса	-5054
▁втори	-5055
▁върби	-5056
▁върза	-5057
▁глупо	-5058
▁горещ	-5059
▁горят	-5060
▁гроби	-5061
▁гроша	-5062
▁дадеш	-5063
▁дайре	-5064
▁джеба	-5065
▁добра	-5066
▁довел	-5067
▁думай	-5068
▁еднич	-5069
▁жъдни	-5070
▁заблу	-5071
▁заеха	-5072
▁закле	-5073
▁закре	-5074
▁запит	-5075
▁засви	-5076
▁избри	-5077
▁избяг	-5078
▁изгни	-5079
▁издай	-5080
▁изтръ	-5081
▁изтър	-5082
▁имало	-5083
▁капка	-5084
▁капки	-5085
▁клане	-5086
▁клиса	-5087
▁ключа	-5088
▁корем	-5089
▁криви	-5090
▁круша	-5091
▁кунду	-5092
▁купол	-5093
▁кътче	-5094
▁лаеше	-5095
▁лишен	-5096
▁майки	-5097
▁майму	-5098
▁макар	-5099
По	-5100
иха	-5101
лец	-5102
пят	-5103
▁ен	-5104
▁ху	-5105
вена	-5106
жете	-5107
напа	-5108
нови	-5109
паля	-5110
раме	-5111
раше	-5112
тино	-5113
чети	-5114
▁бла	-5115
▁бог	-5116
▁изх	-5117
▁коя	-5118
▁ола	-5119
дежда	-5120
напар	-5121
сипят	-5122
уснал	-5123
▁Видя	-5124
▁Нема	-5125
▁Оооо	-5126
▁Став	-5127
▁буен	-5128
▁едри	-5129
▁енту	-5130
▁изма	-5131
▁кате	-5132
▁носа	-5133
▁прем	-5134
▁тоже	-5135
вените	-5136
даваха	-5137
мислим	-5138
чешком	-5139
▁Дойде	-5140
▁впиха	-5141
▁гибел	-5142
▁замръ	-5143
▁имате	-5144
▁минал	-5145
▁мисия	-5146
▁могла	-5147
▁можах	-5148
▁мурга	-5149
▁мъгля	-5150
▁мърда	-5151
▁мътни	-5152
▁начал	-5153
▁нежна	-5154
▁немец	-5155
▁нисък	-5156
▁нишан	-5157
▁окото	-5158
▁опозо	-5159
▁оправ	-5160
▁орехи	-5161
▁отзив	-5162
▁охота	-5163
▁палат	-5164
▁пеене	-5165
▁петна	-5166
▁пищов	-5167
▁поган	-5168
▁покра	-5169
▁потро	-5170
▁почит	-5171
▁прина	-5172
▁прину	-5173
▁прият	-5174
▁прони	-5175
▁пълен	-5176
▁първо	-5177
▁пърга	-5178
▁равно	-5179
▁разля	-5180
▁разме	-5181
▁разни	-5182
▁разно	-5183
▁ратаи	-5184
▁рекли	-5185
▁респу	-5186
▁рядко	-5187
▁самия	-5188
▁свали	-5189
▁свире	-5190
▁седне	-5191
▁сенки	-5192
▁силни	-5193
▁скали	-5194
▁скова	-5195
▁скъса	-5196
▁славо	-5197
▁слезе	-5198
▁смееш	-5199
),	-5200
?!	-5201
ул	-5202
хт	-5203
цу	-5204
заи	-5205
зак	-5206
кма	-5207
лад	-5208
лак	-5209
сва	-5210
тъм	-5211
▁Чи	-5212
▁ву	-5213
гатя	-5214
йска	-5215
лакя	-5216
лари	-5217
лима	-5218
личи	-5219
ллък	-5220
тете	-5221
фени	-5222
хтян	-5223
▁бои	-5224
▁заг	-5225
▁зае	-5226
▁ора	-5227
▁рад	-5228
▁тям	-5229
давна	-5230
закля	-5231
ицето	-5232
ръпна	-5233
чното	-5234
▁Бога	-5235
▁Гочо	-5236
▁Пази	-5237
▁беле	-5238
▁зала	-5239
▁заръ	-5240
▁изна	-5241
▁кана	-5242
▁кеси	-5243
▁нача	-5244
▁неве	-5245
▁нечи	-5246
▁сиви	-5247
▁цвър	-5248
▁чуеш	-5249
▁явно	-5250
▁ярко	-5251
натата	-5252
шества	-5253
▁Всяка	-5254
▁Казах	-5255
▁Консу	-5256
▁клоне	-5257
▁конце	-5258
▁окова	-5259
▁родни	-5260
▁сниши	-5261
▁спеше	-5262
▁среща	-5263
▁стихи	-5264
▁сцени	-5265
▁счита	-5266
▁събле	-5267
▁съвет	-5268
▁съвзе	-5269
▁съдра	-5270
▁сърде	-5271
▁съсед	-5272
▁сянка	-5273
▁тежка	-5274
▁трима	-5275
▁трога	-5276
▁търси	-5277
▁убият	-5278
▁улици	-5279
▁улучи	-5280
▁умира	-5281
▁упъти	-5282
▁усвои	-5283
▁усеща	-5284
▁усили	-5285
▁учили	-5286
▁фарма	-5287
▁хване	-5288
▁хлопа	-5289
▁хране	-5290
▁храни	-5291
▁хубав	-5292
▁хълбо	-5293
▁хъшов	-5294
▁цъфти	-5295
▁чакай	-5296
▁четеш	-5297
▁шеста	-5298
▁шумът	-5299
До	-5300
То	-5301
Ха	-5302
бъ	-5303
зу	-5304
ип	-5305
ню	-5306
рю	-5307
Той	-5308
дил	-5309
йки	-5310
мъл	-5311
нек	-5312
поп	-5313
▁Ор	-5314
вече	-5315
длив	-5316
лете	-5317
наха	-5318
рият	-5319
тане	-5320
чата	-5321
щица	-5322
▁Бър	-5323
▁Мис	-5324
▁Сце	-5325
▁Тях	-5326
▁кат	-5327
▁кая	-5328
▁мое	-5329
Докто	-5330
дейка	-5331
жната	-5332
мливо	-5333
сното	-5334
▁Моха	-5335
▁Нему	-5336
▁Пено	-5337
▁Стоя	-5338
▁душе	-5339
▁знай	-5340
▁неде	-5341
▁сват	-5342
▁Бързо	-5343
▁Имаше	-5344
▁Михал	-5345
▁Черко	-5346
▁взеха	-5347
▁конак	-5348
▁позво	-5349
▁преду	-5350
▁према	-5351
▁топло	-5352
▁трево	-5353
▁ъгъла	-5354
▁ярост	-5355
Докторе	-5356
Зорница	-5357
благоро	-5358
венство	-5359
ветливо	-5360
вителен	-5361
годишна	-5362
дежници	-5363
дейката	-5364
душното	-5365
държимо	-5366
енчоолу	-5367
коснове	-5368
къснели	-5369
лическа	-5370
любието	-5371
лясъкът	-5372
местиха	-5373
нататък	-5374
ндурина	-5375
нимание	-5376
ницаема	-5377
образни	-5378
плимент	-5379
получно	-5380
попчето	-5381
простра	-5382
радство	-5383
ранията	-5384
ременна	-5385
рителни	-5386
стоянно	-5387
стоятел	-5388
творени	-5389
телиген	-5390
тикията	-5391
чалката	-5392
ченцето	-5393
чността	-5394
шителни	-5395
▁Асенча	-5396
▁Василе	-5397
▁Виждаш	-5398
▁Вярвай	-5399
ус	-5400
ях	-5401
▁B	-5402
Сто	-5403
лва	-5404
лии	-5405
мно	-5406
они	-5407
сло	-5408
чта	-5409
▁вз	-5410
▁дю	-5411
Стой	-5412
вици	-5413
воли	-5414
дяла	-5415
живи	-5416
косо	-5417
пени	-5418
само	-5419
тани	-5420
тене	-5421
▁бут	-5422
▁зър	-5423
▁изя	-5424
▁кос	-5425
▁сед	-5426
злоби	-5427
знача	-5428
носта	-5429
рязва	-5430
сиони	-5431
споти	-5432
чваше	-5433
▁били	-5434
▁едър	-5435
▁люти	-5436
▁нака	-5437
▁поля	-5438
▁стих	-5439
▁сяда	-5440
речиво	-5441
сърдие	-5442
щавате	-5443
▁Слава	-5444
▁закон	-5445
▁късно	-5446
▁младо	-5447
▁муста	-5448
▁никое	-5449
▁помръ	-5450
▁чешми	-5451
бението	-5452
зверски	-5453
напарта	-5454
ностаса	-5455
▁Георги	-5456
▁Голосо	-5457
▁Грешка	-5458
▁Деспот	-5459
▁Дяконе	-5460
▁Заедно	-5461
▁Знаете	-5462
▁Излазя	-5463
▁Илийчо	-5464
▁Кирила	-5465
▁Климен	-5466
▁Лицето	-5467
▁Манола	-5468
▁Обядът	-5469
▁Остана	-5470
▁Прокле	-5471
▁Просто	-5472
▁Сбогом	-5473
▁Слушай	-5474
▁Смиона	-5475
▁Стояне	-5476
▁Стояно	-5477
▁Сърбия	-5478
▁Същият	-5479
▁Хрумна	-5480
▁Челеби	-5481
▁Четете	-5482
▁аптека	-5483
▁баубум	-5484
▁бедата	-5485
▁белите	-5486
▁бляска	-5487
▁болнав	-5488
▁бръчки	-5489
▁будала	-5490
▁вашето	-5491
▁вашите	-5492
▁велика	-5493
▁вземем	-5494
▁виждал	-5495
▁викате	-5496
▁високи	-5497
▁висяха	-5498
▁владее	-5499
За	-5500
На	-5501
веш	-5502
лик	-5503
рма	-5504
рне	-5505
сим	-5506
фте	-5507
врем	-5508
леха	-5509
ляма	-5510
нета	-5511
ноко	-5512
раче	-5513
рясъ	-5514
стър	-5515
тере	-5516
филе	-5517
▁Пра	-5518
▁дне	-5519
▁изо	-5520
▁нам	-5521
▁суе	-5522
▁сън	-5523
върза	-5524
зливо	-5525
знаха	-5526
лията	-5527
пваше	-5528
телка	-5529
▁беси	-5530
▁бием	-5531
▁буду	-5532
▁изля	-5533
▁наси	-5534
▁общи	-5535
▁потъ	-5536
▁сама	-5537
▁цели	-5538
нокопа	-5539
ствата	-5540
▁Босна	-5541
▁будут	-5542
▁бързи	-5543
▁крясъ	-5544
▁обеза	-5545
▁обрат	-5546
▁преси	-5547
▁служи	-5548
▁смаян	-5549
▁спосо	-5550
▁умири	-5551
▁цветя	-5552
▁Такова	-5553
▁влязох	-5554
▁водата	-5555
▁водеше	-5556
▁вратня	-5557
▁връзки	-5558
▁втреще	-5559
▁вътреш	-5560
▁вятъра	-5561
▁гигант	-5562
▁гласът	-5563
▁глупец	-5564
▁гневно	-5565
▁гнезда	-5566
▁гореща	-5567
▁горния	-5568
▁гостът	-5569
▁готвим	-5570
▁готова	-5571
▁грозни	-5572
▁грозно	-5573
▁гърбом	-5574
▁дигаше	-5575
▁диреше	-5576
▁добрия	-5577
▁дойдат	-5578
▁докара	-5579
▁дотука	-5580
▁дрезга	-5581
▁дръгли	-5582
▁дръзко	-5583
▁дрънка	-5584
▁дръпна	-5585
▁душите	-5586
▁дънера	-5587
▁жените	-5588
▁жилище	-5589
▁завари	-5590
▁заведе	-5591
▁завика	-5592
▁загнез	-5593
▁загоре	-5594
▁задето	-5595
▁заигра	-5596
▁закани	-5597
▁заколи	-5598
▁запира	-5599
без	-5600
бил	-5601
гру	-5602
ждо	-5603
нце	-5604
пру	-5605
▁Би	-5606
▁ох	-5607
беше	-5608
бива	-5609
бята	-5610
валя	-5611
гнат	-5612
зник	-5613
зост	-5614
лски	-5615
пали	-5616
режи	-5617
стия	-5618
съла	-5619
чаро	-5620
▁Ага	-5621
▁Асе	-5622
▁Иде	-5623
▁вик	-5624
▁нев	-5625
▁пир	-5626
▁тих	-5627
▁умо	-5628
▁хле	-5629
▁щеш	-5630
друга	-5631
стеят	-5632
стижи	-5633
▁Музи	-5634
▁Него	-5635
▁копа	-5636
▁лист	-5637
▁мило	-5638
▁мона	-5639
▁моти	-5640
▁моят	-5641
▁поби	-5642
▁проб	-5643
▁прос	-5644
▁проя	-5645
▁пуше	-5646
стието	-5647
▁Друга	-5648
▁Някой	-5649
▁боста	-5650
▁врати	-5651
▁глави	-5652
▁даваш	-5653
▁изкри	-5654
▁непро	-5655
▁продъ	-5656
▁стара	-5657
▁чести	-5658
Ефендим	-5659
▁Асенчо	-5660
▁влизат	-5661
▁дворче	-5662
▁доказа	-5663
▁запяха	-5664
▁зарази	-5665
▁зарева	-5666
▁затвор	-5667
▁заточе	-5668
▁зачете	-5669
▁защита	-5670
▁здрава	-5671
▁зидове	-5672
▁злъчна	-5673
▁идеали	-5674
▁идиота	-5675
▁избира	-5676
▁издаде	-5677
▁измина	-5678
▁изново	-5679
▁изобра	-5680
▁искаха	-5681
▁истина	-5682
▁казаха	-5683
▁казвай	-5684
▁казват	-5685
▁калимя	-5686
▁камата	-5687
▁камъка	-5688
▁килера	-5689
▁колиба	-5690
▁кривоо	-5691
▁кръвта	-5692
▁кръсто	-5693
▁купове	-5694
▁куршум	-5695
▁къщята	-5696
▁лакътя	-5697
▁ливада	-5698
▁ливади	-5699
ul	-5700
воу	-5701
спи	-5702
фор	-5703
▁ер	-5704
бове	-5705
вния	-5706
глед	-5707
дафи	-5708
джии	-5709
дува	-5710
жаха	-5711
зява	-5712
каса	-5713
люте	-5714
нния	-5715
сани	-5716
твър	-5717
шаше	-5718
ъкмо	-5719
ясно	-5720
▁дъх	-5721
▁зве	-5722
▁нов	-5723
▁опе	-5724
▁стя	-5725
▁тео	-5726
▁яра	-5727
ганда	-5728
гнаха	-5729
йната	-5730
сеяна	-5731
чения	-5732
щание	-5733
▁Анко	-5734
▁Гино	-5735
▁Заде	-5736
▁Ония	-5737
▁Осем	-5738
▁глад	-5739
▁дево	-5740
▁дело	-5741
▁изме	-5742
▁маса	-5743
▁мери	-5744
▁меса	-5745
▁начу	-5746
▁обща	-5747
▁отца	-5748
▁ръст	-5749
▁склю	-5750
▁съпи	-5751
▁тази	-5752
▁трая	-5753
▁чужд	-5754
ваната	-5755
лагаше	-5756
лината	-5757
▁изгле	-5758
▁клони	-5759
▁озова	-5760
▁повър	-5761
▁социа	-5762
▁съвър	-5763
▁съмни	-5764
▁шапка	-5765
▁щерка	-5766
телната	-5767
▁Голямо	-5768
▁брътви	-5769
▁волята	-5770
▁лицата	-5771
▁личеше	-5772
▁лозата	-5773
▁лудият	-5774
▁лъжата	-5775
▁малкия	-5776
▁медици	-5777
▁младеж	-5778
▁моното	-5779
▁мрачен	-5780
▁мургав	-5781
▁мълчиш	-5782
▁навред	-5783
▁надолу	-5784
▁надуто	-5785
▁накъде	-5786
▁наляво	-5787
▁наляха	-5788
▁намеря	-5789
▁напосо	-5790
▁нараня	-5791
▁натова	-5792
▁научил	-5793
▁нафиле	-5794
▁нашата	-5795
▁негови	-5796
▁ненави	-5797
▁ненаде	-5798
▁нервен	-5799
].	-5800
лар	-5801
хки	-5802
чък	-5803
▁Хе	-5804
▁Ху	-5805
гиня	-5806
муши	-5807
пети	-5808
сове	-5809
▁вов	-5810
▁мен	-5811
▁пее	-5812
▁пер	-5813
Много	-5814
ждата	-5815
звата	-5816
лезен	-5817
лезни	-5818
лепна	-5819
лните	-5820
ниско	-5821
рните	-5822
съкът	-5823
▁Камо	-5824
▁Нека	-5825
▁Неча	-5826
▁Ново	-5827
▁Хвър	-5828
▁диви	-5829
▁изпе	-5830
▁огне	-5831
▁пият	-5832
▁поги	-5833
▁река	-5834
▁село	-5835
▁тяло	-5836
положе	-5837
реност	-5838
рските	-5839
совете	-5840
▁Данчо	-5841
▁Навън	-5842
▁Тинко	-5843
▁възто	-5844
▁възца	-5845
▁гласе	-5846
▁гризе	-5847
▁двата	-5848
▁клепа	-5849
▁назва	-5850
▁плачи	-5851
▁подра	-5852
▁предс	-5853
▁тегло	-5854
▁часът	-5855
▁чудна	-5856
страдал	-5857
тическо	-5858
▁Милост	-5859
▁Ставря	-5860
▁Стояна	-5861
▁завчас	-5862
▁изясни	-5863
▁неясни	-5864
▁никому	-5865
▁нишана	-5866
▁новина	-5867
▁новите	-5868
▁новият	-5869
▁нощува	-5870
▁обажда	-5871
▁обесят	-5872
▁обичам	-5873
▁обичая	-5874
▁област	-5875
▁образи	-5876
▁окъсан	-5877
▁омраза	-5878
▁онбаши	-5879
▁оправи	-5880
▁ослуша	-5881
▁отваря	-5882
▁отведе	-5883
▁отворе	-5884
▁отдели	-5885
▁открит	-5886
▁отрица	-5887
▁отсега	-5888
▁отсрещ	-5889
▁отстра	-5890
▁отчаян	-5891
▁очисти	-5892
▁пещера	-5893
▁писано	-5894
▁питане	-5895
▁пладне	-5896
▁плащам	-5897
▁поведе	-5898
▁погали	-5899
лба	-5900
нил	-5901
рии	-5902
▁Ар	-5903
▁Ши	-5904
вопо	-5905
лека	-5906
нчил	-5907
хода	-5908
▁Дой	-5909
▁Нас	-5910
▁вре	-5911
▁гол	-5912
▁жен	-5913
▁ръм	-5914
▁явя	-5915
брала	-5916
кваха	-5917
криха	-5918
рския	-5919
снали	-5920
хваха	-5921
шност	-5922
щавай	-5923
▁Азия	-5924
▁Аман	-5925
▁Голе	-5926
▁Изпо	-5927
▁Каже	-5928
▁Нови	-5929
▁Сред	-5930
▁Тодо	-5931
▁веке	-5932
▁жене	-5933
▁запи	-5934
▁имам	-5935
▁къса	-5936
▁обая	-5937
▁огла	-5938
▁пухо	-5939
▁слух	-5940
▁стой	-5941
▁теле	-5942
▁часо	-5943
жаваха	-5944
калите	-5945
ливата	-5946
стотин	-5947
▁Генко	-5948
▁Доста	-5949
▁Седни	-5950
▁изско	-5951
▁напъл	-5952
▁наред	-5953
▁някое	-5954
▁пиеше	-5955
▁псето	-5956
▁софра	-5957
▁стола	-5958
▁сторя	-5959
▁стоти	-5960
▁стълп	-5961
▁трите	-5962
сналите	-5963
шението	-5964
▁Едната	-5965
▁Казвай	-5966
▁Според	-5967
▁братко	-5968
▁гледан	-5969
▁голите	-5970
▁даваха	-5971
▁докачи	-5972
▁другар	-5973
▁едното	-5974
▁засега	-5975
▁изпяха	-5976
▁капита	-5977
▁краста	-5978
▁остала	-5979
▁оттлас	-5980
▁пламен	-5981
▁погуби	-5982
▁погъде	-5983
▁подава	-5984
▁подари	-5985
▁подири	-5986
▁подуши	-5987
▁поезия	-5988
▁познае	-5989
▁познат	-5990
▁познах	-5991
▁покани	-5992
▁покачи	-5993
▁поклон	-5994
▁покрай	-5995
▁покрив	-5996
▁полето	-5997
▁полуде	-5998
▁поради	-5999
▁посред	-6000
▁постла	-6001
▁потона	-6002
▁пречки	-6003
▁припна	-6004
▁прокле	-6005
▁пролет	-6006
▁проник	-6007
▁проста	-6008
▁просъл	-6009
▁прочее	-6010
▁пръска	-6011
▁пръста	-6012
▁пръсти	-6013
▁пулеше	-6014
▁пущаше	-6015
▁пущина	-6016
▁пъстри	-6017
▁разбой	-6018
▁развит	-6019
▁развър	-6020
▁раздра	-6021
▁ръкава	-6022
▁ръкува	-6023
▁ръчица	-6024
▁сабята	-6025
▁сбърка	-6026
▁свежия	-6027
▁светъл	-6028
▁своето	-6029
▁селата	-6030
▁семина	-6031
▁сестра	-6032
▁силата	-6033
▁силист	-6034
▁синджи	-6035
▁сините	-6036
▁сирота	-6037
▁скитал	-6038
▁скокна	-6039
▁случва	-6040
▁слънце	-6041
▁смаяни	-6042
▁смаяно	-6043
▁сметна	-6044
▁смехът	-6045
▁смисъл	-6046
▁смутен	-6047
▁сочеше	-6048
▁спогле	-6049
▁спряха	-6050
▁срещне	-6051
▁станал	-6052
▁станеш	-6053
▁стария	-6054
▁стиска	-6055
▁сторил	-6056
▁струва	-6057
▁стъкло	-6058
▁събуди	-6059
▁съседа	-6060
▁твърдо	-6061
▁тебеши	-6062
▁тирани	-6063
▁тичаше	-6064
▁тополи	-6065
▁трепет	-6066
▁трепте	-6067
▁тръшна	-6068
▁турска	-6069
▁тъдява	-6070
▁убихте	-6071
▁ударил	-6072
▁удовол	-6073
▁узнава	-6074
▁умееше	-6075
▁успехи	-6076
▁утихна	-6077
▁утрепа	-6078
▁учтиво	-6079
▁хартия	-6080
▁хилеше	-6081
▁хоризо	-6082
▁хрумна	-6083
▁хубава	-6084
▁царски	-6085
▁цигани	-6086
▁чемшир	-6087
▁честна	-6088
▁честни	-6089
▁честта	-6090
▁четата	-6091
▁четяха	-6092
▁чибука	-6093
▁чинове	-6094
▁шейсет	-6095
▁широка	-6096
▁шпиони	-6097
▁ядосан	-6098
вленията	-6099
демдесет	-6100
добрение	-6101
ждението	-6102
живяваше	-6103
клицания	-6104
рестуван	-6105
рителния	-6106
робности	-6107
ствената	-6108
ствуваха	-6109
страстно	-6110
чувствен	-6111
▁Алексан	-6112
▁Аустрия	-6113
▁Бедната	-6114
▁Букурещ	-6115
▁Гостите	-6116
▁Димитре	-6117
▁Изпитът	-6118
▁Йеротея	-6119
▁Климент	-6120
▁Майките	-6121
▁Марийке	-6122
▁Методий	-6123
▁Методия	-6124
▁Нисторе	-6125
▁Павлаке	-6126
▁Псалтът	-6127
▁Първият	-6128
▁Русианн	-6129
▁Соломон	-6130
▁Сохрани	-6131
▁Спукана	-6132
▁Сцената	-6133
▁Сълзите	-6134
▁Турците	-6135
▁Уплаших	-6136
▁Хайдути	-6137
▁Черкова	-6138
▁Черните	-6139
▁актьори	-6140
▁безумно	-6141
▁благоск	-6142
▁блещяха	-6143
▁бляскав	-6144
▁болните	-6145
▁братско	-6146
▁букаите	-6147
▁букурещ	-6148
▁бълнува	-6149
▁веселби	-6150
▁взимаше	-6151
▁влазяше	-6152
▁връщаха	-6153
▁всекиго	-6154
▁второто	-6155
▁въведен	-6156
▁въдвори	-6157
▁възчуди	-6158
▁въпреки	-6159
▁вървеше	-6160
▁вървяха	-6161
▁вярване	-6162
▁гласета	-6163
▁гласове	-6164
▁глупави	-6165
▁говорят	-6166
▁големия	-6167
▁гордели	-6168
▁горчива	-6169
▁градски	-6170
▁грехота	-6171
▁грешния	-6172
▁гробища	-6173
▁гълташе	-6174
▁гърмежа	-6175
▁гърмеше	-6176
▁гърмяха	-6177
▁даскала	-6178
▁девойка	-6179
▁девойче	-6180
▁деспоти	-6181
▁дивотии	-6182
▁домашен	-6183
▁допусна	-6184
▁достига	-6185
▁драмата	-6186
▁другият	-6187
▁дупката	-6188
▁дълбока	-6189
▁дълбоки	-6190
▁дългите	-6191
▁дървено	-6192
▁дядовия	-6193
▁ековете	-6194
▁ентусиа	-6195
▁желание	-6196
▁животно	-6197
▁животът	-6198
▁забавля	-6199
▁забравя	-6200
▁завчера	-6201
▁завърши	-6202
▁заднята	-6203
▁започна	-6204
▁запраши	-6205
▁заспало	-6206
▁затвора	-6207
▁затъмня	-6208
▁звукове	-6209
▁избухне	-6210
▁избягах	-6211
▁извънре	-6212
▁изказва	-6213
▁изкрещя	-6214
▁излазям	-6215
▁изложен	-6216
▁изпитва	-6217
▁изпрати	-6218
▁изпречи	-6219
▁изпсува	-6220
▁изслуша	-6221
▁истории	-6222
▁кадията	-6223
▁казваме	-6224
▁каквито	-6225
▁кесията	-6226
▁кискаха	-6227
▁клетият	-6228
▁книгите	-6229
▁комедии	-6230
▁крещеше	-6231
▁куршуми	-6232
▁кървава	-6233
▁ламбица	-6234
▁леглото	-6235
▁лъскави	-6236
▁любезен	-6237
▁любовно	-6238
▁люшкаше	-6239
▁маврите	-6240
▁малкото	-6241
▁маскари	-6242
▁мигнове	-6243
▁мисълта	-6244
▁млякото	-6245
▁надежда	-6246
▁назнача	-6247
▁наизуст	-6248
▁намерил	-6249
▁намерят	-6250
▁направя	-6251
▁наричаш	-6252
▁народен	-6253
▁натисна	-6254
▁натъпка	-6255
▁науката	-6256
▁небесна	-6257
▁невинна	-6258
▁невярно	-6259
▁недовол	-6260
▁никакви	-6261
▁нощеска	-6262
▁нощните	-6263
▁обаждат	-6264
▁обаяние	-6265
▁обикаля	-6266
▁образът	-6267
▁обратно	-6268
▁обърнал	-6269
▁ожулена	-6270
▁оскърби	-6271
▁оставям	-6272
▁отворил	-6273
▁отвътре	-6274
▁отдавна	-6275
▁отдалеч	-6276
▁отиваха	-6277
▁отидоха	-6278
▁отказва	-6279
▁открито	-6280
▁отмъсти	-6281
▁отпреде	-6282
▁отскочи	-6283
▁оттегли	-6284
▁паднали	-6285
▁песните	-6286
▁пилците	-6287
▁пияница	-6288
▁плашеше	-6289
▁подигна	-6290
▁подлост	-6291
▁подмени	-6292
▁подслон	-6293
▁покорно	-6294
▁покрива	-6295
▁полезен	-6296
▁поличка	-6297
▁помогни	-6298
▁помълча	-6299
▁попарен	-6300
▁попроси	-6301
▁поразен	-6302
▁поразил	-6303
▁порасла	-6304
▁постъпи	-6305
▁потегли	-6306
▁потърка	-6307
▁потърси	-6308
▁почвата	-6309
▁почерпи	-6310
▁почтени	-6311
▁правете	-6312
▁правото	-6313
▁предчув	-6314
▁презира	-6315
▁прилича	-6316
▁пристъп	-6317
▁присъда	-6318
▁притури	-6319
▁промене	-6320
▁промуши	-6321
▁пронизи	-6322
▁просеше	-6323
▁простря	-6324
▁прочита	-6325
▁псалтът	-6326
▁псуваше	-6327
▁публика	-6328
▁пуснала	-6329
▁пушките	-6330
▁пълната	-6331
▁разбрах	-6332
▁раздели	-6333
▁разигра	-6334
▁разкажи	-6335
▁размени	-6336
▁разнесе	-6337
▁разсеян	-6338
▁разстро	-6339
▁решение	-6340
▁ръмжеше	-6341
▁свахата	-6342
▁свитата	-6343
▁свързва	-6344
▁свършва	-6345
▁сдобием	-6346
▁седнаха	-6347
▁селянин	-6348
▁сепнато	-6349
▁слепеца	-6350
▁служеше	-6351
▁слушаме	-6352
▁слушаха	-6353
▁сляпата	-6354
▁смехове	-6355
▁смъртта	-6356
▁софрата	-6357
▁справед	-6358
▁срещата	-6359
▁станаха	-6360
▁старата	-6361
▁старото	-6362
▁стената	-6363
▁стените	-6364
▁странна	-6365
▁страшен	-6366
▁стрелец	-6367
▁стъпала	-6368
▁считаше	-6369
▁съглася	-6370
▁съдията	-6371
▁съзакля	-6372
▁съкрови	-6373
▁съпроти	-6374
▁сърдити	-6375
▁съседът	-6376
▁титлата	-6377
▁трапеза	-6378
▁тревата	-6379
▁трогнат	-6380
▁тропаше	-6381
▁трупата	-6382
▁турския	-6383
▁тълкува	-6384
▁тъмното	-6385
▁търкала	-6386
▁уважава	-6387
▁увеличи	-6388
▁угрижен	-6389
▁удариха	-6390
▁унищожи	-6391
▁уроците	-6392
▁усещаше	-6393
▁учудени	-6394
▁философ	-6395
▁харизах	-6396
▁хвърляй	-6397
▁хекимин	-6398
▁целувки	-6399
▁черного	-6400
▁чертите	-6401
▁човешка	-6402
▁шушнеше	-6403
▁яростно	-6404
Благодаря	-6405
ближаваше	-6406
йнствения	-6407
положение	-6408
ременното	-6409
страдална	-6410
▁Апраксия	-6411
▁Бенчоолу	-6412
▁Всичките	-6413
▁Горчаков	-6414
▁Завесата	-6415
▁Затварят	-6416
▁Климента	-6417
▁Михалакя	-6418
▁Музиката	-6419
▁Наистина	-6420
▁Напротив	-6421
▁Отговори	-6422
▁Поздрави	-6423
▁Проклета	-6424
▁Прощавай	-6425
▁Стефчову	-6426
▁Стоянова	-6427
▁Съвестта	-6428
▁Тишината	-6429
▁Шадовата	-6430
▁Юрданова	-6431
▁безочлив	-6432
▁безпомощ	-6433
▁безпреде	-6434
▁блъснаха	-6435
▁вдъхваше	-6436
▁веригите	-6437
▁вероятно	-6438
▁внезапен	-6439
▁водопади	-6440
▁врачката	-6441
▁връхната	-6442
▁всичкият	-6443
▁възторже	-6444
▁вътрешна	-6445
▁вярвайте	-6446
▁геройски	-6447
▁гнездата	-6448
▁голямата	-6449
▁голямото	-6450
▁гордееше	-6451
▁гръмогла	-6452
▁гълъбице	-6453
▁движения	-6454
▁действие	-6455
▁десетина	-6456
▁длъжност	-6457
▁донесоха	-6458
▁дядовата	-6459
▁дядовият	-6460
▁забогатя	-6461
▁забравил	-6462
▁забравих	-6463
▁забравиш	-6464
▁забрадка	-6465
▁заговори	-6466
▁задаваше	-6467
▁замахаха	-6468
▁замислен	-6469
▁занапред	-6470
▁заповеда	-6471
▁засипаха	-6472
▁затекоха	-6473
▁звънливи	-6474
▁значение	-6475
▁издигаха	-6476
▁излазяше	-6477
▁излязоха	-6478
▁изповяда	-6479
▁изправил	-6480
▁изпулени	-6481
▁изсмуква	-6482
▁изсъсква	-6483
▁караулът	-6484
▁кипариси	-6485
▁коварния	-6486
▁комитети	-6487
▁купището	-6488
▁куршумът	-6489
▁любители	-6490
▁магарето	-6491
▁малообра	-6492
▁махалата	-6493
▁мнението	-6494
▁музиката	-6495
▁мъченици	-6496
▁навъсено	-6497
▁налягаме	-6498
▁намираха	-6499
▁намусено	-6500
▁напротив	-6501
▁напуснал	-6502
▁нахалост	-6503
▁неговата	-6504
▁неочаква	-6505
▁новината	-6506
▁облачета	-6507
▁облечена	-6508
▁огледало	-6509
▁озъртаха	-6510
▁озърташе	-6511
▁омразата	-6512
▁опасните	-6513
▁опитахме	-6514
▁отваряше	-6515
▁отворени	-6516
▁откараха	-6517
▁откогато	-6518
▁откритие	-6519
▁отхвърля	-6520
▁оцапахме	-6521
▁паницата	-6522
▁плачевно	-6523
▁погълнат	-6524
▁подвижни	-6525
▁познавам	-6526
▁познават	-6527
▁поизмени	-6528
▁поканата	-6529
▁покръсти	-6530
▁превърза	-6531
▁предложи	-6532
▁прежното	-6533
▁привикна	-6534
▁приготвя	-6535
▁приимаше	-6536
▁приказка	-6537
▁приказки	-6538
▁прикрито	-6539
▁пришъпна	-6540
▁прозорци	-6541
▁пропадне	-6542
▁простран	-6543
▁противна	-6544
▁противно	-6545
▁прохлада	-6546
▁прощавай	-6547
▁радостни	-6548
▁радостта	-6549
▁разбирам	-6550
▁разгърна	-6551
▁разочаро	-6552
▁разправи	-6553
▁разсеяно	-6554
▁разходка	-6555
▁роптаеха	-6556
▁русокосо	-6557
▁светлина	-6558
▁свободно	-6559
▁сериозно	-6560
▁сестрите	-6561
▁синковци	-6562
▁синовете	-6563
▁скриваше	-6564
▁сметката	-6565
▁сношения	-6566
▁спряпаше	-6567
▁старецът	-6568
▁стреляше	-6569
▁стрехите	-6570
▁стропаля	-6571
▁съвестта	-6572
▁съмнение	-6573
▁съперник	-6574
▁съпикаса	-6575
▁тананика	-6576
▁театрото	-6577
▁театърът	-6578
▁тичешком	-6579
▁тополите	-6580
▁трендафи	-6581
▁трогнато	-6582
▁троицата	-6583
▁турската	-6584
▁уважавам	-6585
▁умрелите	-6586
▁уплашени	-6587
▁усещания	-6588
▁ученичка	-6589
▁училищен	-6590
▁учудване	-6591
▁фантасти	-6592
▁флаутата	-6593
▁челебият	-6594
▁честната	-6595
▁чиновете	-6596
▁чувалите	-6597
▁шеговито	-6598
▁шегуваше	-6599
▁широките	-6600
▁шушукане	-6601
естествено	-6602
животински	-6603
пожертвува	-6604
▁Благодаря	-6605
▁Бонапарта	-6606
▁Бунтовник	-6607
▁Бъзунякът	-6608
▁Госпожице	-6609
▁Девойчето	-6610
▁Дружината	-6611
▁Зрителите	-6612
▁Лозенград	-6613
▁Машинално	-6614
▁Натанаиле	-6615
▁Петковица	-6616
▁Повикайте	-6617
▁алафранга	-6618
▁безгранич	-6619
▁безгрижно	-6620
▁безсмисле	-6621
▁благогове	-6622
▁богомолки	-6623
▁болезнено	-6624
▁вечерният	-6625
▁върховете	-6626
▁годишният	-6627
▁господина	-6628
▁девойчета	-6629
▁декламира	-6630
▁джелатите	-6631
▁доколкото	-6632
▁допълняха	-6633
▁дребничък	-6634
▁другарите	-6635
▁дружината	-6636
▁дърветата	-6637
▁жертвувам	-6638
▁загатване	-6639
▁закрепени	-6640
▁закъснели	-6641
▁заслужено	-6642
▁затваряше	-6643
▁затворени	-6644
▁зачервеня	-6645
▁избърбора	-6646
▁извинение	-6647
▁изпитваха	-6648
▁изповедта	-6649
▁изражение	-6650
▁инстинкти	-6651
▁интелиген	-6652
▁калугерът	-6653
▁кафеджият	-6654
▁клоновете	-6655
▁комшулука	-6656
▁мигновено	-6657
▁момиченце	-6658
▁мълчаливо	-6659
▁навсякъде	-6660
▁надничаше	-6661
▁наказание	-6662
▁намерение	-6663
▁народната	-6664
▁население	-6665
▁наставаха	-6666
▁настроява	-6667
▁натруфени	-6668
▁неизчерпа	-6669
▁немилости	-6670
▁неприятен	-6671
▁обикаляха	-6672
▁обикаляше	-6673
▁обявление	-6674
▁оживление	-6675
▁осветлено	-6676
▁освободим	-6677
▁отношение	-6678
▁пиршества	-6679
▁побледнял	-6680
▁погледите	-6681
▁подлеците	-6682
▁познаваше	-6683
▁полицията	-6684
▁помирисал	-6685
▁последния	-6686
▁пословица	-6687
▁постоянно	-6688
▁представи	-6689
▁премените	-6690
▁приближил	-6691
▁придаваше	-6692
▁приказваш	-6693
▁приличаха	-6694
▁пристигна	-6695
▁проблясък	-6696
▁проговори	-6697
▁произведе	-6698
▁произвола	-6699
▁произнесе	-6700
▁противопо	-6701
▁разказвач	-6702
▁разпаляше	-6703
▁революция	-6704
▁решителен	-6705
▁решително	-6706
▁самосъхра	-6707
▁септември	-6708
▁сиромахът	-6709
▁сладостни	-6710
▁сладостно	-6711
▁сламеника	-6712
▁смущаваха	-6713
▁староврем	-6714
▁студентът	-6715
▁съвещание	-6716
▁съвършено	-6717
▁съзнаваше	-6718
▁теглилата	-6719
▁тъмницата	-6720
▁търнокопа	-6721
▁украшение	-6722
▁усмихнати	-6723
▁фанатизъм	-6724
▁физически	-6725
▁християни	-6726
▁хубавелка	-6727
▁хълбоците	-6728
▁цилиндъра	-6729
▁чорбаджии	-6730
▁чувството	-6731
▁Александър	-6732
▁Огняновата	-6733
▁Останалите	-6734
▁Разпопчето	-6735
▁Светославо	-6736
▁Юрдановата	-6737
▁австрийски	-6738
▁безобразия	-6739
▁безобразни	-6740
▁безпокойте	-6741
▁берберинът	-6742
▁благославя	-6743
▁благослови	-6744
▁бунтовните	-6745
▁бързешката	-6746
▁вестниците	-6747
▁воденичаря	-6748
▁възбуждаше	-6749
▁въздъхнаха	-6750
▁възможност	-6751
▁добродушен	-6752
▁добродушно	-6753
▁завистлива	-6754
▁запитвания	-6755
▁здрависаха	-6756
▁злорадство	-6757
▁карабината	-6758
▁кафеджията	-6759
▁ключалката	-6760
▁комплимент	-6761
▁красноречи	-6762
▁манастирът	-6763
▁многоглаго	-6764
▁невнимание	-6765
▁негодуване	-6766
▁неизвестно	-6767
▁неподвижно	-6768
▁непознатия	-6769
▁неудържимо	-6770
▁нравствени	-6771
▁нравствено	-6772
▁обществени	-6773
▁обществото	-6774
▁обясняваше	-6775
▁оглашаваха	-6776
▁отговаряха	-6777
▁поглеждаха	-6778
▁поглеждаше	-6779
▁подигравки	-6780
▁подсвирква	-6781
▁последните	-6782
▁последнята	-6783
▁привидения	-6784
▁привличаше	-6785
▁приказваха	-6786
▁пропаганда	-6787
▁протегнато	-6788
▁противното	-6789
▁първенците	-6790
▁разговорим	-6791
▁разговорът	-6792
▁разположен	-6793
▁разпростра	-6794
▁разхождаше	-6795
▁революцион	-6796
▁религиозно	-6797
▁ръкопляска	-6798
▁светкавица	-6799
▁славолюбие	-6800
▁социализма	-6801
▁стопанката	-6802
▁съществува	-6803
▁трагически	-6804
▁трескавица	-6805
▁укоризнено	-6806
▁учителката	-6807
▁учителчето	-6808
▁херцеговци	-6809
▁човечество	-6810
▁Богородичке	-6811
▁Българският	-6812
▁Момиченцето	-6813
▁безнадеждно	-6814
▁благочестив	-6815
▁българското	-6816
▁великодушен	-6817
▁великодушно	-6818
▁воденичарят	-6819
▁войнствения	-6820
▁възклицания	-6821
▁девическото	-6822
▁заблуждение	-6823
▁издайството	-6824
▁изпитателно	-6825
▁калимявката	-6826
▁манастирска	-6827
▁многобройна	-6828
▁опасностите	-6829
▁оттласкваше	-6830
▁патриотизъм	-6831
▁погъделичка	-6832
▁подражатели	-6833
▁подробности	-6834
▁предпазливо	-6835
▁приключение	-6836
▁простодушен	-6837
▁противоречи	-6838
▁псалтикията	-6839
▁развълнуван	-6840
▁решителност	-6841
▁самоуверено	-6842
▁спогледнаха	-6843
▁съкровищата	-6844
▁съчувствени	-6845
▁съчувствено	-6846
▁тържествено	-6847
▁удовлетвори	-6848
▁чорбаджиите	-6849
▁Австрийският	-6850
▁Действително	-6851
▁австрийският	-6852
▁белочерковци	-6853
▁благополучно	-6854
▁благоразумно	-6855
▁величествено	-6856
▁възпитанието	-6857
▁гарибалдейка	-6858
▁единственият	-6859
▁крамолически	-6860
▁красноречиво	-6861
▁неприкоснове	-6862
▁погребението	-6863
▁представлява	-6864
▁присъствуват	-6865
▁разположение	-6866
▁республиката	-6867
▁силистренски	-6868
▁страдалчески	-6869
▁съществуваше	-6870
▁хладнокръвие	-6871
▁хладнокръвно	-6872
▁Херцеговското	-6873
▁бунтовническа	-6874
▁въодушевление	-6875
▁жестокосърдие	-6876
▁застрашителни	-6877
▁комитаджийски	-6878
▁малообразован	-6879
▁манастирската	-6880
▁последствията	-6881
▁протестантски	-6882
▁удоволствието	-6883
▁гарибалдейката	-6884
▁ръкопляскането	-6885
▁самопожертвува	-6886
▁удовлетворение	-6887
▁петдесетгодишен	-6888
Хак	-6889
зур	-6890
▁Ba	-6891
Длъж	-6892
збяг	-6893
тфор	-6894
▁Bal	-6895
▁Bul	-6896
▁Еню	-6897
▁Жен	-6898
▁Рип	-6899
▁сбъ	-6900
▁юрю	-6901
Голос	-6902
Избяг	-6903
борич	-6904
волил	-6905
говец	-6906
грубя	-6907
дабур	-6908
зовеш	-6909
зумял	-6910
игфри	-6911
ихаля	-6912
йтани	-6913
кмака	-6914
любци	-6915
морих	-6916
нцеса	-6917
орова	-6918
радва	-6919
робил	-6920
сейле	-6921
спиро	-6922
тъмно	-6923
фтеря	-6924
▁Vive	-6925
▁Било	-6926
▁Евро	-6927
▁Прах	-6928
▁Трай	-6929
▁Фами	-6930
▁Чини	-6931
▁анек	-6932
▁арха	-6933
▁евро	-6934
▁изхв	-6935
▁изящ	-6936
▁лява	-6937
▁могъ	-6938
▁обул	-6939
▁орке	-6940
▁орха	-6941
▁урва	-6942
▁урви	-6943
▁юрюш	-6944
Михаля	-6945
Накара	-6946
Отивам	-6947
Сигфри	-6948
гантче	-6949
гечмиш	-6950
гласим	-6951
голямо	-6952
детино	-6953
дялана	-6954
жавина	-6955
заимно	-6956
заично	-6957
зглаве	-6958
котене	-6959
кспиро	-6960
кунина	-6961
лежете	-6962
лоцвет	-6963
манино	-6964
млията	-6965
мориха	-6966
мълвна	-6967
мълвно	-6968
нюваше	-6969
нягово	-6970
перато	-6971
правди	-6972
пъхтян	-6973
режиха	-6974
рливия	-6975
рязвам	-6976
сипали	-6977
снейша	-6978
снейши	-6979
твърди	-6980
трудни	-6981
тфорти	-6982
умряла	-6983
форова	-6984
хождаш	-6985
човаме	-6986
човеко	-6987
чущите	-6988
ъклица	-6989
ълняше	-6990
▁Агаря	-6991
▁Загру	-6992
▁Идете	-6993
▁Оттук	-6994
▁Очеви	-6995
▁Писмо	-6996
▁Тежка	-6997
▁Тъкмо	-6998
▁Фачка	-6999
Твои	-7000
мних	-7001
рчва	-7002
фуча	-7003
▁Ший	-7004
делци	-7005
лизин	-7006
лупец	-7007
нтува	-7008
нчила	-7009
перки	-7010
ръкче	-7011
фициа	-7012
храна	-7013
шелци	-7014
▁Грях	-7015
▁санд	-7016
влякъл	-7017
грешиш	-7018
звечер	-7019
злобли	-7020
нтувам	-7021
пример	-7022
футски	-7023
▁Въста	-7024
▁Чешми	-7025
▁Чувай	-7026
▁анадо	-7027
▁анасо	-7028
▁багре	-7029
▁бащин	-7030
▁бегах	-7031
▁безин	-7032
▁безус	-7033
▁бележ	-7034
▁вдига	-7035
▁вовсе	-7036
▁врели	-7037
▁гюбре	-7038
▁доспи	-7039
▁дотук	-7040
▁доход	-7041
▁душма	-7042
▁ерген	-7043
▁жълти	-7044
▁залая	-7045
▁зверо	-7046
▁знайш	-7047
▁куфал	-7048
▁кьосе	-7049
▁ленив	-7050
▁лясто	-7051
▁масло	-7052
▁мечта	-7053
▁мишци	-7054
▁молба	-7055
▁опело	-7056
▁отрез	-7057
▁пазим	-7058
▁погиб	-7059
▁понаг	-7060
▁ринат	-7061
▁рошав	-7062
▁седем	-7063
▁секат	-7064
▁съпру	-7065
▁теоре	-7066
▁тряба	-7067
▁тумбе	-7068
▁тъкмо	-7069
▁усамо	-7070
▁ухапа	-7071
▁ухапя	-7072
▁халат	-7073
▁часов	-7074
▁чекма	-7075
▁чуждо	-7076
▁шалва	-7077
▁юмрук	-7078
▁явява	-7079
Алексан	-7080
борният	-7081
вановци	-7082
вършаха	-7083
гилизин	-7084
джийска	-7085
доволил	-7086
другаде	-7087
желател	-7088
живяват	-7089
заимноу	-7090
злобиви	-7091
злобиво	-7092
зоновци	-7093
кослове	-7094
кръстиш	-7095
купваше	-7096
лдовата	-7097
леделци	-7098
липския	-7099
лязан	-7100
▁сядаш	-7101
белязан	-7102
ложната	-7103
любност	-7104
мечешка	-7105
мърчаше	-7106
палщини	-7107
петитът	-7108
приемам	-7109
пълзява	-7110
разумие	-7111
роглаве	-7112
рушиняк	-7113
рътнаха	-7114
сейлеза	-7115
селения	-7116
сечното	-7117
скаллък	-7118
стижимо	-7119
сточний	-7120
съкруши	-7121
тичното	-7122
удетино	-7123
хваната	-7124
хкините	-7125
ходство	-7126
хотливи	-7127
щипския	-7128
щявката	-7129
ьолците	-7130
▁Авджии	-7131
▁Авраме	-7132
▁Велико	-7133
▁Викаше	-7134
▁Глупец	-7135
▁Европа	-7136
▁Заведи	-7137
▁Задека	-7138
▁Играта	-7139
▁Идеите	-7140
▁Илийча	-7141
▁Мохаме	-7142
▁Мрачни	-7143
▁Нашето	-7144
▁Османа	-7145
▁Османо	-7146
▁Отивам	-7147
▁Преспа	-7148
▁Реката	-7149
▁Ролята	-7150
▁Светка	-7151
▁Соломо	-7152
▁Средня	-7153
▁Тодори	-7154
▁Фамили	-7155
▁Четири	-7156
▁Чинеше	-7157
▁бедиха	-7158
▁безбур	-7159
▁блажен	-7160
▁бутнем	-7161
▁венчея	-7162
▁вериги	-7163
▁взимал	-7164
▁вилици	-7165
▁влазят	-7166
▁възток	-7167
▁въобще	-7168
▁вързан	-7169
▁глъчка	-7170
▁гордий	-7171
▁горещо	-7172
▁губеше	-7173
▁гърмеж	-7174
▁гявури	-7175
▁делика	-7176
▁дневен	-7177
▁долния	-7178
▁дробил	-7179
▁дръвче	-7180
▁държиш	-7181
▁дяволи	-7182
▁еванта	-7183
▁заехтя	-7184
▁заклел	-7185
▁замяза	-7186
▁зарежи	-7187
▁заслед	-7188
▁заслеп	-7189
▁зограф	-7190
▁избиха	-7191
▁избран	-7192
▁издува	-7193
▁измами	-7194
▁изоста	-7195
▁изтика	-7196
▁изяден	-7197
▁исляма	-7198
▁книжки	-7199
▁Искам	-7200
▁Циган	-7201
▁донел	-7202
▁залян	-7203
▁замах	-7204
▁надут	-7205
▁пилци	-7206
▁погуб	-7207
▁сетил	-7208
▁успех	-7209
дарство	-7210
лепнато	-7211
роицата	-7212
хранила	-7213
▁Познах	-7214
▁вдигне	-7215
▁донеси	-7216
▁дребни	-7217
▁замаян	-7218
▁излъга	-7219
▁излъка	-7220
▁калека	-7221
▁кокали	-7222
▁кокоша	-7223
▁кокоши	-7224
▁краища	-7225
▁кратко	-7226
▁лежаха	-7227
▁листна	-7228
▁лутане	-7229
▁люлеко	-7230
▁метани	-7231
▁мешаше	-7232
▁мобили	-7233
▁монахи	-7234
▁музика	-7235
▁навеки	-7236
▁наклоп	-7237
▁намуси	-7238
▁начала	-7239
▁нашето	-7240
▁неделя	-7241
▁немину	-7242
▁необхо	-7243
▁несамо	-7244
▁низост	-7245
▁одърче	-7246
▁озовал	-7247
▁озовеш	-7248
▁окован	-7249
▁околни	-7250
▁опитва	-7251
▁опусто	-7252
▁отпуща	-7253
▁отръки	-7254
▁охкане	-7255
▁охтика	-7256
▁палеха	-7257
▁пепель	-7258
▁плащай	-7259
▁подлец	-7260
▁поживи	-7261
▁поляна	-7262
▁понама	-7263
▁порода	-7264
▁посока	-7265
▁потроп	-7266
▁потъва	-7267
▁поупла	-7268
▁пращам	-7269
▁предсм	-7270
▁предум	-7271
▁прибяг	-7272
▁принад	-7273
▁присми	-7274
▁приспа	-7275
▁провъз	-7276
▁пукаше	-7277
▁пухови	-7278
▁радвай	-7279
▁разбие	-7280
▁разгър	-7281
▁разсми	-7282
▁расото	-7283
▁решето	-7284
▁румено	-7285
▁сандък	-7286
▁сапуне	-7287
▁сахата	-7288
▁сбъдне	-7289
▁сваляй	-7290
▁сватът	-7291
▁сгряна	-7292
▁сгряно	-7293
▁силния	-7294
▁сипеха	-7295
▁сключи	-7296
▁скърпе	-7297
▁скърца	-7298
▁сламка	-7299
бръки	-7300
ветиш	-7301
добие	-7302
жжена	-7303
лчест	-7304
рязал	-7305
ситет	-7306
▁бейо	-7307
▁бойо	-7308
▁плик	-7309
▁укор	-7310
▁упои	-7311
▁явил	-7312
кисква	-7313
кичени	-7314
летени	-7315
мушени	-7316
рачест	-7317
рязана	-7318
спания	-7319
турете	-7320
хубава	-7321
ълзени	-7322
яснимо	-7323
▁Джена	-7324
▁духни	-7325
▁оживе	-7326
▁султа	-7327
▁създа	-7328
▁тънка	-7329
▁фарфа	-7330
вядваше	-7331
кискват	-7332
чудваше	-7333
▁Всякак	-7334
▁Капнал	-7335
▁Общият	-7336
▁бойове	-7337
▁броено	-7338
▁външна	-7339
▁длъжни	-7340
▁залепе	-7341
▁заряза	-7342
▁капнал	-7343
▁месите	-7344
▁мъжкия	-7345
▁надала	-7346
▁оживей	-7347
▁печени	-7348
▁плитка	-7349
▁плитко	-7350
▁попове	-7351
▁служил	-7352
▁слънца	-7353
▁смазан	-7354
▁смутня	-7355
▁спомни	-7356
▁спусне	-7357
▁средно	-7358
▁стояне	-7359
▁сухост	-7360
▁тежаха	-7361
▁тлъсти	-7362
▁тръгва	-7363
▁трябаш	-7364
▁убийца	-7365
▁увериш	-7366
▁увлича	-7367
▁удържи	-7368
▁ужасна	-7369
▁ужасно	-7370
▁украся	-7371
▁умение	-7372
▁умножи	-7373
▁уморих	-7374
▁уморят	-7375
▁упорно	-7376
▁усвоил	-7377
▁усъмня	-7378
▁училищ	-7379
▁фенера	-7380
▁хапнеш	-7381
▁хлебец	-7382
▁хлевоу	-7383
▁хубави	-7384
▁цвърка	-7385
▁цвърте	-7386
▁чревоу	-7387
▁чудови	-7388
Господин	-7389
Наздраве	-7390
верситет	-7391
вещавате	-7392
виркване	-7393
говаряха	-7394
гощавате	-7395
дилището	-7396
клеветиш	-7397
кушаваше	-7398
късаните	-7399
Дай	-7400
жур	-7401
цъф	-7402
елей	-7403
генда	-7404
дкини	-7405
загор	-7406
лейша	-7407
мбази	-7408
рудки	-7409
стява	-7410
тмото	-7411
тягай	-7412
цъфтя	-7413
▁Шъпа	-7414
▁улей	-7415
▁шъпа	-7416
бразът	-7417
горния	-7418
монска	-7419
скитал	-7420
стопол	-7421
тръгне	-7422
▁Дадох	-7423
▁Мъсти	-7424
▁Свече	-7425
▁божур	-7426
▁входа	-7427
▁дадох	-7428
▁дипло	-7429
▁нощен	-7430
▁откак	-7431
▁сегиз	-7432
▁ухили	-7433
▁фатал	-7434
▁фукна	-7435
гатвали	-7436
ламбази	-7437
лейшаго	-7438
мудкини	-7439
пъждаше	-7440
▁Хубави	-7441
▁агалар	-7442
▁азбука	-7443
▁дойдох	-7444
▁изпищя	-7445
▁климат	-7446
▁постал	-7447
▁употре	-7448
▁фучеше	-7449
бавялото	-7450
вастопол	-7451
загорско	-7452
лебимото	-7453
людаваше	-7454
лютеният	-7455
моримият	-7456
мотевици	-7457
мъдрието	-7458
ндуринът	-7459
охотливи	-7460
печатвал	-7461
плаквала	-7462
положено	-7463
почиташе	-7464
пресиони	-7465
пруските	-7466
рачелите	-7467
ргически	-7468
рмасиони	-7469
торумени	-7470
фийското	-7471
футските	-7472
хмудкини	-7473
хотворен	-7474
хубавото	-7475
щастията	-7476
ърветата	-7477
▁Безумно	-7478
▁Бързобе	-7479
▁Войвода	-7480
▁Гедеона	-7481
▁Главата	-7482
▁Иваново	-7483
▁Излазям	-7484
▁Испания	-7485
▁Йеротей	-7486
▁Наблизо	-7487
▁Нейната	-7488
▁Никодим	-7489
▁Образът	-7490
▁Писмено	-7491
▁Постижи	-7492
▁Преспах	-7493
▁Слушала	-7494
▁Спомних	-7495
▁Умориха	-7496
▁безсъве	-7497
▁безумни	-7498
▁безуспе	-7499
▁неин	-7500
▁побъ	-7501
▁мирян	-7502
▁побъб	-7503
▁ходим	-7504
▁хохот	-7505
▁чучур	-7506
бразени	-7507
тателка	-7508
тваряше	-7509
▁Казвам	-7510
▁белица	-7511
▁бръмчи	-7512
▁връщат	-7513
▁дивота	-7514
▁любеше	-7515
▁любещо	-7516
▁мотиви	-7517
▁обвиня	-7518
▁опитам	-7519
▁опиташ	-7520
▁почерк	-7521
▁развил	-7522
вещаваше	-7523
гощаваха	-7524
▁Благоро	-7525
▁Страшна	-7526
▁Хвърлят	-7527
▁бистрия	-7528
▁блъскам	-7529
▁борецът	-7530
▁боричка	-7531
▁брошура	-7532
▁брътвиш	-7533
▁бъдещия	-7534
▁вдигаме	-7535
▁вдигаха	-7536
▁веднага	-7537
▁ветрого	-7538
▁веявици	-7539
▁взираше	-7540
▁виелица	-7541
▁влазяха	-7542
▁войвода	-7543
▁вторачи	-7544
▁възглед	-7545
▁възмуте	-7546
▁възцари	-7547
▁вързали	-7548
▁вързана	-7549
▁гавреха	-7550
▁глупаво	-7551
▁глупост	-7552
▁глухият	-7553
▁горести	-7554
▁гюбрето	-7555
▁дадохте	-7556
▁дайрета	-7557
▁даскале	-7558
▁деликат	-7559
▁детенце	-7560
▁джебове	-7561
▁дигнете	-7562
▁докопал	-7563
▁допреди	-7564
▁достоен	-7565
▁дръвник	-7566
▁дрънкаш	-7567
▁душмани	-7568
▁държаха	-7569
▁дяволит	-7570
▁дяволът	-7571
▁енергия	-7572
▁железни	-7573
▁живеете	-7574
▁забитин	-7575
▁заглуша	-7576
▁залисан	-7577
▁заметна	-7578
▁замязал	-7579
▁запрели	-7580
▁запъхте	-7581
▁зарадва	-7582
▁засеяна	-7583
▁зачетен	-7584
▁зверове	-7585
▁зловещо	-7586
▁злополу	-7587
▁знамето	-7588
▁зърнеше	-7589
▁изгнила	-7590
▁излазят	-7591
▁излязох	-7592
▁изнасил	-7593
▁изпушиш	-7594
▁изрънча	-7595
▁изтегля	-7596
▁изтрещя	-7597
▁инстинк	-7598
▁калъчка	-7599
рлага	-7600
хтяха	-7601
▁кърд	-7602
▁полз	-7603
▁пояс	-7604
валяни	-7605
лагате	-7606
ласнат	-7607
мислие	-7608
ненада	-7609
ъмнена	-7610
▁Врати	-7611
▁Можеш	-7612
▁блага	-7613
▁грубо	-7614
▁завла	-7615
▁ожени	-7616
▁полвя	-7617
▁появя	-7618
▁птица	-7619
▁спице	-7620
▁срама	-7621
▁хляба	-7622
▁читак	-7623
бичките	-7624
вличала	-7625
дишките	-7626
зеникът	-7627
клонена	-7628
кошките	-7629
къснала	-7630
мислици	-7631
никнали	-7632
рлагане	-7633
стникът	-7634
съмнена	-7635
▁Изнена	-7636
▁Намери	-7637
▁апосто	-7638
▁вмъкна	-7639
▁годява	-7640
▁грухна	-7641
▁драски	-7642
▁ехтяха	-7643
▁изколи	-7644
▁картин	-7645
▁купува	-7646
▁кърджа	-7647
▁късаше	-7648
▁могъща	-7649
▁мръдна	-7650
▁насили	-7651
▁насочи	-7652
▁помери	-7653
▁самият	-7654
▁сухото	-7655
▁техния	-7656
ненадана	-7657
рлаганев	-7658
рнаджият	-7659
▁Метохът	-7660
▁Първата	-7661
▁завладя	-7662
▁изколим	-7663
▁изскочи	-7664
▁изтегли	-7665
▁искрата	-7666
▁карамфи	-7667
▁картина	-7668
▁картини	-7669
▁катерил	-7670
▁кепенци	-7671
▁кискане	-7672
▁клепачи	-7673
▁княгиня	-7674
▁коварно	-7675
▁кокошар	-7676
▁консула	-7677
▁косвено	-7678
▁крясъци	-7679
▁кундура	-7680
▁кълчеше	-7681
▁кървави	-7682
▁лудешки	-7683
▁лъжливо	-7684
▁любезно	-7685
▁люлееше	-7686
▁люлката	-7687
▁лястови	-7688
▁маймуна	-7689
▁майчина	-7690
▁малките	-7691
▁милости	-7692
▁мостове	-7693
▁мърдане	-7694
▁мъртвец	-7695
▁навежда	-7696
▁награди	-7697
▁надписа	-7698
▁надявам	-7699
оная	-7700
язви	-7701
веда̀	-7702
голям	-7703
легия	-7704
ягнал	-7705
▁Божо	-7706
▁Едри	-7707
▁испа	-7708
▁опръ	-7709
▁узко	-7710
близко	-7711
лявани	-7712
нявате	-7713
устяла	-7714
юпенци	-7715
▁Задек	-7716
▁Петер	-7717
▁бутни	-7718
▁уязви	-7719
▁хасъл	-7720
звището	-7721
уверено	-7722
▁говеда	-7723
▁давате	-7724
▁дългия	-7725
▁косяха	-7726
▁отрано	-7727
▁плашли	-7728
▁препли	-7729
▁свириш	-7730
▁сериоз	-7731
▁убивал	-7732
▁червея	-7733
▁Бъзуняк	-7734
▁блъскат	-7735
▁възглав	-7736
▁готвеха	-7737
▁зачерня	-7738
▁злочест	-7739
▁капваше	-7740
▁кюпенци	-7741
▁накажеш	-7742
▁наклони	-7743
▁намръщи	-7744
▁напълно	-7745
▁нарекъл	-7746
▁насилия	-7747
▁насилят	-7748
▁натруфи	-7749
▁натърти	-7750
▁небрежи	-7751
▁неволен	-7752
▁немееха	-7753
▁нетърпи	-7754
▁нечиста	-7755
▁обръщат	-7756
▁огнения	-7757
▁окъсано	-7758
▁онбашия	-7759
▁опираме	-7760
▁опитвай	-7761
▁опитвам	-7762
▁опозоря	-7763
▁оправят	-7764
▁опръска	-7765
▁орехите	-7766
▁остриже	-7767
▁отбягна	-7768
▁отгажда	-7769
▁открове	-7770
▁отлични	-7771
▁отмести	-7772
▁отнесъл	-7773
▁отпусна	-7774
▁охладят	-7775
▁паленце	-7776
▁пиесата	-7777
▁пиленце	-7778
▁пиперки	-7779
▁плакала	-7780
▁плашила	-7781
▁плашили	-7782
▁побъбри	-7783
▁побягна	-7784
▁повикай	-7785
▁поганци	-7786
▁позлати	-7787
▁позлатя	-7788
▁покорна	-7789
▁полвяка	-7790
▁полезни	-7791
▁полката	-7792
▁помести	-7793
▁помилва	-7794
▁понесъл	-7795
▁пороите	-7796
▁появата	-7797
▁празник	-7798
▁премале	-7799
деец	-7800
▁джеб	-7801
▁злат	-7802
▁марш	-7803
похата	-7804
▁гушка	-7805
▁марта	-7806
▁облян	-7807
▁похва	-7808
▁речта	-7809
▁сколу	-7810
▁скочи	-7811
▁уроки	-7812
▁уроци	-7813
▁хармо	-7814
валякът	-7815
видност	-7816
нерчето	-7817
чурчето	-7818
▁бягане	-7819
▁глухия	-7820
▁девети	-7821
▁завиха	-7822
▁защити	-7823
▁нарече	-7824
▁невесе	-7825
▁обляна	-7826
▁обляно	-7827
▁ограни	-7828
▁отърва	-7829
▁поигра	-7830
▁речник	-7831
▁скочиш	-7832
▁старци	-7833
▁съвест	-7834
▁угризе	-7835
▁хрисим	-7836
▁широко	-7837
течество	-7838
▁Разгово	-7839
▁великая	-7840
▁девойки	-7841
▁епохата	-7842
▁забрава	-7843
▁заменят	-7844
▁затрепе	-7845
▁злодеец	-7846
▁излезна	-7847
▁махания	-7848
▁нарежда	-7849
▁покрита	-7850
▁преобле	-7851
▁пресили	-7852
▁приемат	-7853
▁пророци	-7854
▁пророче	-7855
▁псуваха	-7856
▁птичият	-7857
▁пушкаше	-7858
▁пъргави	-7859
▁пъхтене	-7860
▁разбита	-7861
▁раздяла	-7862
▁разобла	-7863
▁разтика	-7864
▁разумен	-7865
▁разумна	-7866
▁ратаите	-7867
▁ревните	-7868
▁религия	-7869
▁роднина	-7870
▁роднини	-7871
▁роклица	-7872
▁сбираше	-7873
▁сбъркаш	-7874
▁свалиха	-7875
▁светлик	-7876
▁свещица	-7877
▁свирепе	-7878
▁свиреха	-7879
▁сговаря	-7880
▁сгрешиш	-7881
▁силният	-7882
▁симпати	-7883
▁скалите	-7884
▁сколуфи	-7885
▁скръсти	-7886
▁слугиня	-7887
▁сметнал	-7888
▁смешаха	-7889
▁сохрани	-7890
▁сполучи	-7891
▁спукана	-7892
▁старост	-7893
▁стидлив	-7894
▁стихове	-7895
▁стопани	-7896
▁стъпкал	-7897
▁суетата	-7898
▁сукнена	-7899
ални	-7900
ндил	-7901
олек	-7902
денец	-7903
дрото	-7904
канец	-7905
кунди	-7906
лепно	-7907
ложат	-7908
лунощ	-7909
нутно	-7910
хотно	-7911
▁Яжте	-7912
▁ериф	-7913
▁тъпо	-7914
▁тъче	-7915
▁юнак	-7916
зирала	-7917
къртен	-7918
лниите	-7919
навска	-7920
ндилце	-7921
олекне	-7922
самоте	-7923
шнаков	-7924
▁Истин	-7925
▁Назад	-7926
▁Чудно	-7927
▁вежди	-7928
▁конец	-7929
▁лъжат	-7930
▁оръжи	-7931
▁отзад	-7932
▁понав	-7933
▁ритна	-7934
▁ръжди	-7935
▁снеха	-7936
▁турец	-7937
днасяше	-7938
кнатото	-7939
критото	-7940
минутно	-7941
нциални	-7942
ритетно	-7943
стинска	-7944
▁Бабите	-7945
▁Магаре	-7946
▁болест	-7947
▁детски	-7948
▁дръжте	-7949
▁дръзки	-7950
▁изстъп	-7951
▁керата	-7952
▁личеха	-7953
▁надлъж	-7954
▁отнеха	-7955
▁охотно	-7956
▁понавъ	-7957
▁постъп	-7958
▁ритори	-7959
▁ронеха	-7960
▁селски	-7961
▁сияние	-7962
▁усилва	-7963
ближават	-7964
самотена	-7965
стъпната	-7966
траканец	-7967
▁Полунощ	-7968
▁Пушката	-7969
▁излязло	-7970
▁кадрото	-7971
▁минутно	-7972
▁мъгляво	-7973
▁отървеш	-7974
▁поимаше	-7975
▁полунощ	-7976
▁помнеха	-7977
▁пълнеха	-7978
▁ръждиви	-7979
▁секунди	-7980
▁считаха	-7981
▁съблече	-7982
▁съдържа	-7983
▁съпруга	-7984
▁сърбеше	-7985
▁съсипят	-7986
▁тайната	-7987
▁танцува	-7988
▁тебешир	-7989
▁теглила	-7990
▁техният	-7991
▁тревоги	-7992
▁тревожи	-7993
▁трещеше	-7994
▁тумбест	-7995
▁турецка	-7996
▁тъмнота	-7997
▁убиецът	-7998
▁увиваше	-7999
Защо	-8000
ърву	-8001
▁бъб	-8002
▁дву	-8003
вярва	-8004
лостив	-8005
млъкна	-8006
▁Криво	-8007
▁Тодор	-8008
▁двуце	-8009
▁зачух	-8010
▁невяр	-8011
▁новак	-8012
▁църву	-8013
готвяха	-8014
лячките	-8015
рителна	-8016
▁Силист	-8017
▁бъзуня	-8018
▁вземеш	-8019
▁държат	-8020
▁заплаш	-8021
▁изведи	-8022
▁извест	-8023
▁узнаха	-8024
отворена	-8025
▁Тодорчо	-8026
▁бузички	-8027
▁бъбрица	-8028
▁виноват	-8029
▁дайрето	-8030
▁духовно	-8031
▁запалил	-8032
▁заточен	-8033
▁извадим	-8034
▁изгубен	-8035
▁кичести	-8036
▁красния	-8037
▁лудичка	-8038
▁минувал	-8039
▁мислещо	-8040
▁напрано	-8041
▁настъпи	-8042
▁небесен	-8043
▁повярва	-8044
▁поклони	-8045
▁предава	-8046
▁предани	-8047
▁простич	-8048
▁разврат	-8049
▁сиромах	-8050
▁старини	-8051
▁сториха	-8052
▁съседна	-8053
▁украсят	-8054
▁улисана	-8055
▁умиране	-8056
▁умолите	-8057
▁усилило	-8058
▁утвърди	-8059
▁ухилено	-8060
▁училища	-8061
▁фарфара	-8062
▁фунията	-8063
▁ханджия	-8064
▁хващане	-8065
▁хоризон	-8066
▁хранела	-8067
▁хубавее	-8068
▁целунеш	-8069
▁чакмака	-8070
▁чемшири	-8071
▁човечец	-8072
▁чуднова	-8073
▁чучурка	-8074
▁шалвари	-8075
▁ядосана	-8076
▁яростта	-8077
Алафранга	-8078
ближаваха	-8079
блюдаваше	-8080
болезнено	-8081
вкушаваше	-8082
гателства	-8083
годишната	-8084
годишното	-8085
даскаллък	-8086
джийското	-8087
зенградча	-8088
ловидното	-8089
лушително	-8090
месечното	-8091
мущението	-8092
ображение	-8093
образният	-8094
патичното	-8095
печатваше	-8096
прелестно	-8097
разбираше	-8098
рованието	-8099
тъна	-8100
ъпен	-8101
▁фее	-8102
купен	-8103
ладжа	-8104
тънал	-8105
фирна	-8106
хтори	-8107
▁Друг	-8108
▁Дудо	-8109
▁Знай	-8110
▁аази	-8111
▁смър	-8112
далеко	-8113
интере	-8114
калият	-8115
късано	-8116
мирява	-8117
писано	-8118
рахода	-8119
селена	-8120
тладжа	-8121
хтории	-8122
▁Втори	-8123
▁Духът	-8124
▁Павлю	-8125
▁впери	-8126
▁духов	-8127
▁комка	-8128
▁компа	-8129
▁мярна	-8130
▁пипка	-8131
▁скита	-8132
▁смята	-8133
▁спали	-8134
▁умиря	-8135
бедната	-8136
душлива	-8137
▁Дудото	-8138
▁Думата	-8139
▁Думите	-8140
▁градец	-8141
▁ефирна	-8142
▁запъна	-8143
▁зарита	-8144
▁звание	-8145
▁напъна	-8146
▁огорча	-8147
▁пипаше	-8148
▁рамене	-8149
▁решено	-8150
▁трезви	-8151
▁тупаха	-8152
▁феерия	-8153
веселена	-8154
грацията	-8155
достъпен	-8156
обедната	-8157
сакалият	-8158
тладжани	-8159
▁Потънал	-8160
▁горчиво	-8161
▁гълчаха	-8162
▁духовни	-8163
▁концерт	-8164
▁крушите	-8165
▁миризми	-8166
▁пипкави	-8167
▁прибере	-8168
▁свалена	-8169
▁смъртен	-8170
▁смяташе	-8171
▁сновяха	-8172
▁спореше	-8173
▁тропаха	-8174
ствителен	-8175
сударство	-8176
сърденият	-8177
сърдечний	-8178
тетическо	-8179
тихотворе	-8180
тразимата	-8181
хотниците	-8182
човеческа	-8183
▁Бакунина	-8184
▁Богатите	-8185
▁Богорова	-8186
▁Вероятно	-8187
▁Воденича	-8188
▁Големият	-8189
▁Гологлав	-8190
▁Десетина	-8191
▁Детински	-8192
▁Другарят	-8193
▁Дунавска	-8194
▁Духовете	-8195
▁Излазяме	-8196
▁Налагате	-8197
▁Намерили	-8198
▁Недалеко	-8199
Поми	-8200
ърпя	-8201
добен	-8202
какво	-8203
лътне	-8204
люнки	-8205
мичък	-8206
пенни	-8207
▁Въве	-8208
Помилу	-8209
нешком	-8210
▁Райни	-8211
▁турих	-8212
▁търпя	-8213
Помилуй	-8214
душният	-8215
оновица	-8216
пнешком	-8217
подобен	-8218
янските	-8219
▁младея	-8220
▁обадят	-8221
▁плюнки	-8222
▁подсми	-8223
▁полуда	-8224
▁сполай	-8225
▁ставай	-8226
▁стърпя	-8227
диняваше	-8228
лоняваше	-8229
паряваше	-8230
рандабур	-8231
степенни	-8232
▁Дамянче	-8233
▁Някакво	-8234
▁Особено	-8235
▁Самичък	-8236
▁арханге	-8237
▁глухота	-8238
▁глухото	-8239
▁дружини	-8240
▁дружино	-8241
▁дяконче	-8242
▁женския	-8243
▁здравис	-8244
▁интрига	-8245
▁ламбата	-8246
▁младежи	-8247
▁намират	-8248
▁настани	-8249
▁победят	-8250
▁подарък	-8251
▁посекат	-8252
▁преведа	-8253
▁произше	-8254
▁чистота	-8255
доподобен	-8256
единяваше	-8257
обладание	-8258
▁Бошнаков	-8259
▁Въведоха	-8260
▁Носовете	-8261
▁Откараха	-8262
▁Петербур	-8263
▁Повикаха	-8264
▁Погледът	-8265
▁Разправя	-8266
▁Светлата	-8267
▁Серафимо	-8268
▁Слушайте	-8269
▁Соломона	-8270
▁Турските	-8271
▁Фамилиар	-8272
▁Циганско	-8273
▁арестува	-8274
▁бащиният	-8275
▁безграни	-8276
▁безсъзна	-8277
▁блеснаха	-8278
▁близките	-8279
▁блъскаше	-8280
▁ботфорти	-8281
▁бръмчаха	-8282
▁бръмчеше	-8283
▁бунтувам	-8284
▁буренака	-8285
▁буренеца	-8286
▁бъдещето	-8287
▁бъзуняка	-8288
▁бърчения	-8289
▁вдъхваха	-8290
▁величава	-8291
▁вехтории	-8292
▁вечеряше	-8293
▁вилиците	-8294
▁височина	-8295
▁влезнете	-8296
▁всемирна	-8297
▁всемирно	-8298
▁вторачен	-8299
елек	-8300
ешиш	-8301
▁Йов	-8302
вичин	-8303
вядах	-8304
кестъ	-8305
ръмжа	-8306
тични	-8307
▁Обла	-8308
▁Шери	-8309
▁фари	-8310
Голосе	-8311
чнатия	-8312
▁Кешиш	-8313
▁брада	-8314
▁герда	-8315
▁жъдно	-8316
▁клима	-8317
▁крово	-8318
▁лични	-8319
▁опуст	-8320
▁отвръ	-8321
▁парде	-8322
▁парла	-8323
▁парси	-8324
▁патко	-8325
▁повди	-8326
▁повта	-8327
▁струя	-8328
веждаха	-8329
волякът	-8330
електри	-8331
кестъра	-8332
кийките	-8333
ловения	-8334
ръмните	-8335
творица	-8336
▁Йовков	-8337
▁Никола	-8338
▁Облаци	-8339
▁Такава	-8340
▁безжиз	-8341
▁блесна	-8342
▁вдъхне	-8343
▁гердан	-8344
▁добива	-8345
▁добият	-8346
▁забръм	-8347
▁кротък	-8348
▁неодоб	-8349
▁опустя	-8350
▁отврат	-8351
▁пардес	-8352
▁смигна	-8353
▁убеден	-8354
▁хванем	-8355
мантични	-8356
стествен	-8357
страстен	-8358
▁Маскари	-8359
▁Найдоха	-8360
▁Шерифът	-8361
▁звънлив	-8362
▁изветре	-8363
▁изръмжа	-8364
▁нарочни	-8365
▁неблаго	-8366
▁неулови	-8367
▁отвръст	-8368
▁пардесю	-8369
▁повдига	-8370
▁повтаря	-8371
▁подобно	-8372
▁фарисей	-8373
естествен	-8374
лясканета	-8375
некийките	-8376
таламбази	-8377
▁втрещени	-8378
▁възвание	-8379
▁възчудих	-8380
▁вълнения	-8381
▁външност	-8382
▁вътрешни	-8383
▁главните	-8384
▁главният	-8385
▁гоненият	-8386
▁графския	-8387
▁гробница	-8388
▁гръмотът	-8389
▁далечния	-8390
▁демонска	-8391
▁деспотиз	-8392
▁добиваше	-8393
▁дойдохме	-8394
▁докарали	-8395
▁докараха	-8396
▁долината	-8397
▁допущаше	-8398
▁достовер	-8399
гушо	-8400
бежен	-8401
божен	-8402
гушой	-8403
дкава	-8404
кифор	-8405
ктика	-8406
манла	-8407
трещя	-8408
▁Цяла	-8409
▁Шпио	-8410
▁ярем	-8411
вличат	-8412
главие	-8413
практи	-8414
ствующ	-8415
▁бодка	-8416
▁важни	-8417
▁коман	-8418
вличаха	-8419
вствена	-8420
лудкава	-8421
манларъ	-8422
могушой	-8423
навътре	-8424
пването	-8425
▁Насочи	-8426
▁всемир	-8427
▁вържем	-8428
▁звънци	-8429
▁охладя	-8430
▁подивя	-8431
▁подире	-8432
▁полета	-8433
▁сватби	-8434
▁удариш	-8435
шаването	-8436
▁Никифор	-8437
▁Шпионин	-8438
▁благата	-8439
▁дрехите	-8440
▁затрещя	-8441
▁играещи	-8442
▁каквато	-8443
▁команда	-8444
▁можахте	-8445
▁набожен	-8446
▁невинно	-8447
▁погубва	-8448
▁простре	-8449
▁срещнал	-8450
▁срещнат	-8451
▁тактика	-8452
▁черпеше	-8453
думогушой	-8454
практичен	-8455
▁Неговото	-8456
▁блудкава	-8457
▁въпросът	-8458
▁главната	-8459
▁дохождаш	-8460
▁дрезгаво	-8461
▁дружески	-8462
▁дълголик	-8463
▁дяволски	-8464
▁едничкия	-8465
▁естество	-8466
▁женската	-8467
▁женските	-8468
▁забравяй	-8469
▁заглавие	-8470
▁закарали	-8471
▁закопани	-8472
▁заливаше	-8473
▁залягаше	-8474
▁замлъкна	-8475
▁запалила	-8476
▁заспалия	-8477
▁зачервен	-8478
▁зачудена	-8479
▁зачудено	-8480
▁звънливо	-8481
▁златната	-8482
▁зловещия	-8483
▁злодейци	-8484
▁идеалист	-8485
▁избрахте	-8486
▁извадени	-8487
▁изваждат	-8488
▁извличат	-8489
▁изглежда	-8490
▁изгубена	-8491
▁издаваха	-8492
▁излъчена	-8493
▁измамила	-8494
▁изписано	-8495
▁изпсувал	-8496
▁изскокна	-8497
▁изтребле	-8498
▁изтръгна	-8499
▁li	-8500
▁юл	-8501
▁юс	-8502
слав	-8503
усър	-8504
ьозо	-8505
▁lib	-8506
▁гюл	-8507
▁нра	-8508
Право	-8509
бовна	-8510
пехли	-8511
▁libe	-8512
▁Уйду	-8513
▁шиша	-8514
▁шпан	-8515
валиха	-8516
долюби	-8517
ждебно	-8518
зпехли	-8519
любиво	-8520
новало	-8521
рослав	-8522
▁liber	-8523
▁Гьозо	-8524
▁Прати	-8525
▁браво	-8526
▁груби	-8527
▁дивна	-8528
▁зайде	-8529
▁локви	-8530
▁морав	-8531
▁нравя	-8532
▁синьо	-8533
▁шията	-8534
разбуди	-8535
рувайте	-8536
усърдно	-8537
чителят	-8538
▁libert	-8539
▁Чашите	-8540
▁веднъж	-8541
▁висеше	-8542
▁вървим	-8543
▁газова	-8544
▁галеше	-8545
▁гробно	-8546
▁дребно	-8547
▁залюби	-8548
▁камъна	-8549
▁кладен	-8550
▁помнят	-8551
▁ръсеше	-8552
▁силеше	-8553
▁цепеше	-8554
▁ясност	-8555
хвърчаха	-8556
▁liberte	-8557
▁Мечката	-8558
▁Неволно	-8559
▁Ярослав	-8560
▁грабнал	-8561
▁градеца	-8562
▁изписна	-8563
▁провали	-8564
▁търсеше	-8565
равняваше	-8566
▁Гьозоолу	-8567
▁Останете	-8568
▁всякакви	-8569
▁гробовна	-8570
▁донесено	-8571
▁законите	-8572
▁значител	-8573
▁изхарчва	-8574
▁изчервил	-8575
▁изчетеше	-8576
▁истинска	-8577
▁калесани	-8578
▁камънаци	-8579
▁кандилце	-8580
▁карамфил	-8581
▁картинна	-8582
▁кафеджия	-8583
▁кирливия	-8584
▁кискания	-8585
▁клонеста	-8586
▁книжката	-8587
▁колибари	-8588
▁консулът	-8589
▁косачите	-8590
▁кратките	-8591
▁кръстоса	-8592
▁лудетино	-8593
▁люлеково	-8594
▁масалите	-8595
▁менявате	-8596
▁местните	-8597
▁миновало	-8598
▁миризлив	-8599
пълни	-8600
собен	-8601
хории	-8602
▁кръч	-8603
латият	-8604
люмина	-8605
лютият	-8606
ъкмеше	-8607
▁внесе	-8608
▁грижи	-8609
▁денем	-8610
▁живей	-8611
▁изкуп	-8612
▁особе	-8613
▁решил	-8614
▁слива	-8615
▁сложи	-8616
приятно	-8617
станете	-8618
тървала	-8619
читание	-8620
▁Предме	-8621
▁димеше	-8622
▁завеси	-8623
▁заложи	-8624
▁замина	-8625
▁изкуфе	-8626
▁камина	-8627
▁кръсти	-8628
▁кръчми	-8629
▁мислил	-8630
▁оконча	-8631
▁отложи	-8632
ръжаваше	-8633
способен	-8634
▁Клетият	-8635
▁Предста	-8636
▁безумие	-8637
▁градина	-8638
▁гърбове	-8639
▁допълни	-8640
▁завехна	-8641
▁задавен	-8642
▁извлече	-8643
▁изкусен	-8644
▁изкусни	-8645
▁илюмина	-8646
▁капката	-8647
▁наведен	-8648
▁навлече	-8649
▁обядвал	-8650
▁особени	-8651
▁отвлече	-8652
▁пазвата	-8653
▁повлече	-8654
▁подложи	-8655
▁покажеш	-8656
▁природи	-8657
▁простор	-8658
▁пуснали	-8659
▁сложили	-8660
▁тъкмеше	-8661
ложително	-8662
почитание	-8663
ствующите	-8664
▁Воистина	-8665
▁Големите	-8666
▁заптиета	-8667
▁идиотско	-8668
▁изкупвам	-8669
▁изкуство	-8670
▁изкуфели	-8671
▁млъкнала	-8672
▁монахиня	-8673
▁мотивите	-8674
▁мрачният	-8675
▁мръкнало	-8676
▁мъртвеща	-8677
▁мъртвите	-8678
▁навалиха	-8679
▁название	-8680
▁накачени	-8681
▁налагаше	-8682
▁намислим	-8683
▁намръщен	-8684
▁написала	-8685
▁написано	-8686
▁напролет	-8687
▁наредени	-8688
▁наричаха	-8689
▁наслаган	-8690
▁настоява	-8691
▁небесния	-8692
▁невесели	-8693
▁незлобли	-8694
▁немската	-8695
▁ненавист	-8696
▁ненадеен	-8697
▁необходи	-8698
▁неотмени	-8699
▁(„	-8700
фект	-8701
ънят	-8702
клони	-8703
нежна	-8704
ръзка	-8705
рядки	-8706
сулки	-8707
чкина	-8708
▁Буре	-8709
▁Куна	-8710
▁Чоно	-8711
▁себя	-8712
бурест	-8713
влякла	-8714
година	-8715
делина	-8716
делица	-8717
слабна	-8718
▁Бурни	-8719
▁Куршу	-8720
▁Пропа	-8721
▁булки	-8722
▁важна	-8723
▁верни	-8724
▁връст	-8725
▁драго	-8726
▁ефект	-8727
▁залък	-8728
▁зелки	-8729
▁излек	-8730
▁килии	-8731
▁малък	-8732
▁надеж	-8733
▁отчай	-8734
▁очаро	-8735
▁рекла	-8736
▁чакам	-8737
ведника	-8738
веждаше	-8739
гандата	-8740
душните	-8741
ловният	-8742
машните	-8743
мбурест	-8744
ператор	-8745
реждаше	-8746
▁Кучето	-8747
▁Огънят	-8748
▁Пламни	-8749
▁вдигна	-8750
▁дигаха	-8751
▁кръсте	-8752
▁мъжете	-8753
▁недели	-8754
▁разказ	-8755
▁репети	-8756
▁случки	-8757
▁чакаме	-8758
мператор	-8759
словният	-8760
▁Буренът	-8761
▁бабички	-8762
▁висулки	-8763
▁засвири	-8764
▁зографи	-8765
▁месецът	-8766
▁мълчеха	-8767
▁отклони	-8768
▁порядки	-8769
▁признае	-8770
▁работим	-8771
▁тръгнах	-8772
▁Куршумът	-8773
▁бездните	-8774
▁виделина	-8775
▁втренчил	-8776
▁греческа	-8777
▁догодина	-8778
▁излекува	-8779
▁кръстеха	-8780
▁неправди	-8781
▁непривет	-8782
▁нещастна	-8783
▁ножовете	-8784
▁обиждаха	-8785
▁обиколим	-8786
▁облагоро	-8787
▁облечено	-8788
▁облягаше	-8789
▁общечове	-8790
▁оградите	-8791
▁одърчето	-8792
▁озоваваш	-8793
▁околност	-8794
▁омаскари	-8795
▁описваше	-8796
▁опустеят	-8797
▁оркестър	-8798
▁оръжията	-8799
?“.	-8800
▁шъ	-8801
ктите	-8802
слуша	-8803
стров	-8804
турил	-8805
хлати	-8806
▁Проз	-8807
▁Твой	-8808
▁гале	-8809
▁пиеш	-8810
▁сееш	-8811
▁шъта	-8812
▁ъгъл	-8813
дечиха	-8814
ерцего	-8815
жавала	-8816
лковци	-8817
несоха	-8818
ставля	-8819
сягаше	-8820
▁Вчера	-8821
▁Окото	-8822
▁астро	-8823
▁борил	-8824
▁восък	-8825
▁ранил	-8826
▁сечем	-8827
▁ското	-8828
▁турил	-8829
▁школо	-8830
вободно	-8831
▁Вашата	-8832
▁Колчем	-8833
▁Твойта	-8834
▁деляха	-8835
▁залиса	-8836
▁изхаби	-8837
▁климна	-8838
▁обедът	-8839
▁обядът	-8840
▁остров	-8841
▁решена	-8842
▁сестро	-8843
▁ситите	-8844
▁сметка	-8845
▁сокове	-8846
бликнало	-8847
кудечиха	-8848
полковци	-8849
реността	-8850
свободно	-8851
слушание	-8852
▁Килията	-8853
▁Херцего	-8854
▁астроно	-8855
▁бухлати	-8856
▁бързото	-8857
▁галерия	-8858
▁залисай	-8859
▁запряха	-8860
▁изхабиш	-8861
▁мънички	-8862
▁ноктите	-8863
▁пратиха	-8864
▁разляха	-8865
▁скотопо	-8866
▁треперя	-8867
▁трийсет	-8868
▁школото	-8869
гласнейши	-8870
▁Неговата	-8871
▁Троицата	-8872
▁досягаше	-8873
▁запалени	-8874
▁захванал	-8875
▁нощуваме	-8876
▁оставено	-8877
▁отвисоко	-8878
▁отворено	-8879
▁отгаждам	-8880
▁отделили	-8881
▁отказваш	-8882
▁отначало	-8883
▁отрезвим	-8884
▁отрязвам	-8885
▁отстрани	-8886
▁оттръгне	-8887
▁очакване	-8888
▁очарован	-8889
▁очертани	-8890
▁очистиха	-8891
▁пенджера	-8892
▁пламваше	-8893
▁пламенна	-8894
▁пламенно	-8895
▁пламнало	-8896
▁пламтяха	-8897
▁плячките	-8898
▁победена	-8899
Прак	-8900
мрак	-8901
▁Акт	-8902
децът	-8903
кулна	-8904
нецът	-8905
ракни	-8906
харак	-8907
ърсил	-8908
▁Ваша	-8909
▁Сипе	-8910
▁Също	-8911
лнатия	-8912
менеше	-8913
стална	-8914
▁Актьо	-8915
▁Движе	-8916
▁Дошъл	-8917
▁Петро	-8918
▁бесил	-8919
▁бялна	-8920
▁игото	-8921
▁лягай	-8922
▁носил	-8923
▁следи	-8924
▁следо	-8925
▁следу	-8926
▁хитро	-8927
воляваш	-8928
кулнаха	-8929
лохарак	-8930
нурение	-8931
ременен	-8932
▁Играем	-8933
▁Истори	-8934
▁Сипеят	-8935
▁Търсил	-8936
▁байрак	-8937
▁двесте	-8938
▁закара	-8939
▁накара	-8940
▁облиза	-8941
▁порица	-8942
▁следую	-8943
▁степен	-8944
▁търсил	-8945
▁хракни	-8946
▁царица	-8947
▁целият	-8948
жденецът	-8949
зволяваш	-8950
▁венчила	-8951
▁вземете	-8952
▁доведат	-8953
▁дългото	-8954
▁издържи	-8955
▁накарам	-8956
▁негонен	-8957
▁нейните	-8958
▁поканен	-8959
▁помнеше	-8960
▁поробен	-8961
▁скъсано	-8962
▁следова	-8963
▁странен	-8964
▁стрелят	-8965
▁студени	-8966
кърмушени	-8967
лохаракте	-8968
▁Градецът	-8969
▁Петрович	-8970
▁байракта	-8971
▁закараме	-8972
▁запиране	-8973
▁запозная	-8974
▁избягала	-8975
▁килнатия	-8976
▁колелото	-8977
▁побираше	-8978
▁побъбрим	-8979
▁повикаха	-8980
▁повлякъл	-8981
▁повърнат	-8982
▁погрешка	-8983
▁погрешно	-8984
▁погубили	-8985
▁подарена	-8986
▁подмисли	-8987
▁поиграеш	-8988
▁поискаме	-8989
▁показаха	-8990
▁покаяние	-8991
▁полагаше	-8992
▁полудееш	-8993
▁полудява	-8994
▁полумрак	-8995
▁поляната	-8996
▁помислил	-8997
▁помислих	-8998
▁помогнал	-8999
??!	-9000
ult	-9001
“).	-9002
ultr	-9003
лъск	-9004
спал	-9005
▁Цел	-9006
ultra	-9007
блеск	-9008
блъск	-9009
добни	-9010
добно	-9011
колли	-9012
лезно	-9013
ловец	-9014
ройки	-9015
чаяно	-9016
▁васс	-9017
▁спал	-9018
ждения	-9019
карват	-9020
ментът	-9021
рязани	-9022
снения	-9023
ъртния	-9024
▁ultra	-9025
▁Вечер	-9026
▁Майки	-9027
▁Целта	-9028
▁вассс	-9029
▁изсме	-9030
▁конте	-9031
▁лисне	-9032
▁мокро	-9033
▁наука	-9034
▁науми	-9035
▁наумя	-9036
▁нрави	-9037
▁платя	-9038
▁чужде	-9039
дигнала	-9040
▁Заспал	-9041
▁Казват	-9042
▁всякак	-9043
▁заспал	-9044
▁изсмее	-9045
▁научат	-9046
▁начете	-9047
▁огнена	-9048
▁отчети	-9049
▁побеля	-9050
▁прекар	-9051
▁сблъск	-9052
▁спалня	-9053
▁същите	-9054
▁ученик	-9055
койствие	-9056
нтичката	-9057
▁Раздаде	-9058
▁блъскан	-9059
▁заблаго	-9060
▁заколли	-9061
▁избягна	-9062
▁наближи	-9063
▁нечаяно	-9064
▁побелял	-9065
▁похлопа	-9066
▁пръскат	-9067
▁разлюте	-9068
▁смисъла	-9069
▁шествие	-9070
▁заблагоу	-9071
▁закарват	-9072
▁изрязани	-9073
▁контешки	-9074
▁общината	-9075
▁помогнат	-9076
▁помръдна	-9077
▁понамаля	-9078
▁поолекне	-9079
▁попръжни	-9080
▁пораснат	-9081
▁поръчаха	-9082
▁посборич	-9083
▁потвърдя	-9084
▁почерпиш	-9085
▁почиташе	-9086
▁практиче	-9087
▁прашната	-9088
▁превръща	-9089
▁предсмър	-9090
▁преждата	-9091
▁преплита	-9092
▁прерязва	-9093
▁пресегна	-9094
▁пресекна	-9095
▁пречките	-9096
▁прибавим	-9097
▁приведен	-9098
▁привърже	-9099
нкт	-9100
нгли	-9101
рлив	-9102
урно	-9103
шлив	-9104
▁Вай	-9105
бнати	-9106
бурно	-9107
глиха	-9108
дебна	-9109
мерно	-9110
стлив	-9111
чинов	-9112
шлено	-9113
▁Кура	-9114
▁Пита	-9115
▁зима	-9116
▁зиме	-9117
▁кеха	-9118
▁осия	-9119
▁ханз	-9120
деляше	-9121
тостта	-9122
щавала	-9123
ътрази	-9124
▁Англи	-9125
▁Кураж	-9126
▁Пийте	-9127
▁зееше	-9128
▁кехая	-9129
▁клещи	-9130
▁неуте	-9131
▁отсам	-9132
▁пункт	-9133
▁фрази	-9134
▁целта	-9135
криляше	-9136
лъбнати	-9137
мъглиха	-9138
новници	-9139
пасност	-9140
ратурно	-9141
щастлив	-9142
▁Гладен	-9143
▁Порази	-9144
▁гробна	-9145
▁изрази	-9146
▁клетия	-9147
▁обичан	-9148
▁ханзър	-9149
глъбнати	-9150
значение	-9151
ключение	-9152
▁Павлови	-9153
▁властта	-9154
▁гайтани	-9155
▁земното	-9156
▁играеха	-9157
▁издебна	-9158
▁изчерпа	-9159
▁наблизо	-9160
▁неутеши	-9161
▁обичала	-9162
▁оставих	-9163
▁плашлив	-9164
▁почивка	-9165
▁смущава	-9166
▁тътрази	-9167
етованата	-9168
разнюваше	-9169
тературно	-9170
торствува	-9171
▁Всичкият	-9172
▁Дойчинов	-9173
▁Опасност	-9174
▁Павловия	-9175
▁бунтовна	-9176
▁бунтовни	-9177
▁звънтяха	-9178
▁караница	-9179
▁практика	-9180
▁приглаша	-9181
▁приключе	-9182
▁приличен	-9183
▁принадле	-9184
▁принудят	-9185
▁притурил	-9186
▁пришелци	-9187
▁продумал	-9188
▁прозорец	-9189
▁прозорче	-9190
▁проклето	-9191
▁променил	-9192
▁промених	-9193
▁проникна	-9194
▁пропадна	-9195
▁пропусне	-9196
▁просвете	-9197
▁прострял	-9198
▁протокол	-9199
зум	-9200
▁Във	-9201
▁Дъж	-9202
▁сол	-9203
бързо	-9204
вички	-9205
добър	-9206
латна	-9207
нтава	-9208
▁Бунт	-9209
▁звер	-9210
▁кефа	-9211
▁свря	-9212
▁цвят	-9213
бледен	-9214
отдето	-9215
▁Графи	-9216
▁Приро	-9217
▁ангел	-9218
▁бунта	-9219
▁дивят	-9220
▁екзал	-9221
▁кузум	-9222
▁набле	-9223
▁невер	-9224
▁обори	-9225
▁порта	-9226
▁разум	-9227
▁рицар	-9228
▁съзре	-9229
▁устца	-9230
▁чанта	-9231
добрият	-9232
▁Дъждът	-9233
▁Златна	-9234
▁върнах	-9235
▁гласец	-9236
▁замяна	-9237
▁избити	-9238
▁кожата	-9239
▁махаше	-9240
▁победа	-9241
▁правим	-9242
▁правиш	-9243
▁уловил	-9244
▁цигула	-9245
нобледен	-9246
▁Излязох	-9247
▁Писмото	-9248
▁евантай	-9249
▁екзалти	-9250
▁захваща	-9251
▁клонове	-9252
▁любовни	-9253
▁любовта	-9254
▁момчета	-9255
▁набързо	-9256
▁неверни	-9257
▁разбрал	-9258
▁рунтава	-9259
▁стотина	-9260
▁Природно	-9261
▁евантайл	-9262
▁захващаш	-9263
▁зверщини	-9264
▁наблегна	-9265
▁привички	-9266
▁прочитат	-9267
▁прустове	-9268
▁пръскаше	-9269
▁пръснати	-9270
▁пуснахме	-9271
▁пъстрина	-9272
▁радостна	-9273
▁разбереш	-9274
▁развилне	-9275
▁разгръща	-9276
▁разноски	-9277
▁разсипят	-9278
▁разсмива	-9279
▁разсърди	-9280
▁разтягай	-9281
▁разузнал	-9282
▁разярени	-9283
▁риторика	-9284
▁рицарски	-9285
▁ръчицата	-9286
▁сапунева	-9287
▁сборният	-9288
▁свестява	-9289
▁свързала	-9290
▁свързаха	-9291
▁свършват	-9292
▁симпатия	-9293
▁синджири	-9294
▁скърпено	-9295
▁сладкоду	-9296
▁служител	-9297
▁смехории	-9298
▁смутнята	-9299
▁Яж	-9300
глят	-9301
слят	-9302
▁лят	-9303
▁щат	-9304
битие	-9305
ничко	-9306
рства	-9307
сотии	-9308
▁Арме	-9309
▁вълк	-9310
▁крик	-9311
▁крил	-9312
мислят	-9313
теглят	-9314
ълтели	-9315
ъничко	-9316
▁Война	-9317
▁Колят	-9318
▁Турци	-9319
▁богат	-9320
▁брани	-9321
▁вълше	-9322
▁гордо	-9323
▁колят	-9324
▁крити	-9325
▁носиш	-9326
▁ограб	-9327
▁разфу	-9328
▁седже	-9329
▁твоят	-9330
валията	-9331
жълтели	-9332
ръщания	-9333
тарства	-9334
тикваше	-9335
хналост	-9336
▁вълшеб	-9337
▁гордия	-9338
▁зрение	-9339
▁майска	-9340
▁облече	-9341
▁открие	-9342
▁открих	-9343
▁открия	-9344
▁ровеше	-9345
▁ставаш	-9346
▁твоите	-9347
▁тежеше	-9348
▁третия	-9349
гръщания	-9350
ществото	-9351
▁Армения	-9352
▁Дадохме	-9353
▁Тъничко	-9354
▁бесотии	-9355
▁вестява	-9356
▁критику	-9357
▁лятното	-9358
▁набрала	-9359
▁наляхме	-9360
▁обичаха	-9361
▁обядват	-9362
▁седжеде	-9363
▁славеше	-9364
▁смешаше	-9365
▁спираха	-9366
▁страдае	-9367
▁събитие	-9368
▁учители	-9369
▁Малафран	-9370
▁Очевидно	-9371
▁Юрданови	-9372
▁вълшебни	-9373
▁забягнал	-9374
▁измислят	-9375
▁крикчета	-9376
▁намериха	-9377
▁намираме	-9378
▁облаците	-9379
▁околните	-9380
▁открития	-9381
▁подаваха	-9382
▁подадоха	-9383
▁развитие	-9384
▁разфучал	-9385
▁смъкнало	-9386
▁снощната	-9387
▁снощният	-9388
▁среднята	-9389
▁средство	-9390
▁срещнеше	-9391
▁стенание	-9392
▁стихиите	-9393
▁стомната	-9394
▁стражата	-9395
▁страхови	-9396
▁страхува	-9397
▁стъклото	-9398
▁султанче	-9399
жоб	-9400
обща	-9401
пция	-9402
алият	-9403
безен	-9404
бурни	-9405
днете	-9406
ловно	-9407
▁Люта	-9408
▁Люто	-9409
▁Сгре	-9410
▁джоб	-9411
▁опия	-9412
▁трие	-9413
▁циви	-9414
дневно	-9415
обстве	-9416
хубаво	-9417
човица	-9418
▁Ганча	-9419
▁Препи	-9420
▁Стори	-9421
▁бавно	-9422
▁бутне	-9423
▁дадат	-9424
▁мрамо	-9425
▁помин	-9426
▁приел	-9427
▁стяга	-9428
▁трика	-9429
▁тропа	-9430
▁трупо	-9431
▁удави	-9432
▁ударя	-9433
билието	-9434
датните	-9435
любезен	-9436
малкото	-9437
яджията	-9438
▁Василя	-9439
▁Иванча	-9440
▁Истина	-9441
▁Препир	-9442
▁мрамор	-9443
▁обадил	-9444
▁свирка	-9445
▁триест	-9446
▁трудни	-9447
▁ударен	-9448
▁уплита	-9449
страстие	-9450
▁Даалият	-9451
▁всеобща	-9452
▁доброто	-9453
▁дълбочи	-9454
▁жаловно	-9455
▁изтреби	-9456
▁изуваше	-9457
▁кученце	-9458
▁небесни	-9459
▁невиден	-9460
▁позната	-9461
▁полиция	-9462
▁поминък	-9463
▁помията	-9464
▁собстве	-9465
▁стареца	-9466
▁стройна	-9467
▁тропара	-9468
нушителен	-9469
▁Долината	-9470
▁Мачовица	-9471
▁Сгрените	-9472
▁безбурни	-9473
▁диарбеки	-9474
▁мечкарин	-9475
▁напосока	-9476
▁небесний	-9477
▁следните	-9478
▁събираше	-9479
▁събрание	-9480
▁съвремен	-9481
▁съдрания	-9482
▁сънуваше	-9483
▁съставля	-9484
▁състрада	-9485
▁тазвечер	-9486
▁тебешире	-9487
▁тишината	-9488
▁тлъстеят	-9489
▁тресната	-9490
▁триестки	-9491
▁трикатен	-9492
▁тръгваме	-9493
▁тръгваха	-9494
▁тръгваше	-9495
▁тръшнала	-9496
▁турските	-9497
▁убийства	-9498
▁увиснаха	-9499
▁Ця	-9500
праж	-9501
шкир	-9502
▁Яне	-9503
вашки	-9504
верен	-9505
гурен	-9506
лушки	-9507
нишки	-9508
четат	-9509
▁гюло	-9510
▁кьос	-9511
▁огре	-9512
▁пяна	-9513
▁скит	-9514
бедите	-9515
ковано	-9516
напето	-9517
стопри	-9518
▁Лесно	-9519
▁корен	-9520
▁огрее	-9521
▁отпра	-9522
▁порой	-9523
▁скрия	-9524
▁упраж	-9525
гическа	-9526
дителен	-9527
▁Косата	-9528
▁Някога	-9529
▁Цялата	-9530
▁безпри	-9531
▁велики	-9532
▁величи	-9533
▁виждах	-9534
▁гюлово	-9535
▁злобен	-9536
▁насред	-9537
▁неопит	-9538
▁пешкир	-9539
▁пръсте	-9540
▁скрием	-9541
▁скрити	-9542
▁стояла	-9543
▁стреми	-9544
бедители	-9545
стоприем	-9546
чениците	-9547
▁Янелият	-9548
▁великия	-9549
▁горчиви	-9550
▁гърмежи	-9551
▁дивашки	-9552
▁залязло	-9553
▁захвани	-9554
▁казашки	-9555
▁кьосето	-9556
▁младите	-9557
▁нейният	-9558
▁оглушки	-9559
▁повърне	-9560
▁понамръ	-9561
▁самопри	-9562
▁сигурен	-9563
▁сърдите	-9564
▁човешки	-9565
▁шушката	-9566
кръвнишки	-9567
▁Агарянци	-9568
▁барачест	-9569
▁великите	-9570
▁заковано	-9571
▁зашумява	-9572
▁излъкату	-9573
▁инстинкт	-9574
▁канапето	-9575
▁момичета	-9576
▁неопитни	-9577
▁опашката	-9578
▁прочетат	-9579
▁пръстеня	-9580
▁пръстите	-9581
▁симпатии	-9582
▁скитника	-9583
▁суеверен	-9584
▁увличаше	-9585
▁узнаваха	-9586
▁умилости	-9587
▁умирисва	-9588
▁умислено	-9589
▁умишлено	-9590
▁уплашена	-9591
▁упорство	-9592
▁употреби	-9593
▁усамотен	-9594
▁усилваха	-9595
▁усмихнат	-9596
▁утринния	-9597
▁ученията	-9598
▁фотограф	-9599
фяни	-9600
▁Сту	-9601
▁руб	-9602
▁фел	-9603
▁шей	-9604
Света	-9605
крачи	-9606
решен	-9607
ртеше	-9608
христ	-9609
▁Днес	-9610
▁жали	-9611
▁рубе	-9612
▁фелд	-9613
▁шеги	-9614
▁шейх	-9615
дифяни	-9616
долима	-9617
лагаха	-9618
мящата	-9619
нищата	-9620
пезата	-9621
ънтеше	-9622
▁Освен	-9623
▁Турчи	-9624
▁жадни	-9625
▁менто	-9626
▁окъпа	-9627
▁омаца	-9628
▁отпла	-9629
▁рукна	-9630
▁смире	-9631
▁турям	-9632
▁угоди	-9633
▁умрял	-9634
Втелява	-9635
йствува	-9636
страшен	-9637
▁Бащата	-9638
▁Припка	-9639
▁Студен	-9640
▁брадва	-9641
▁братче	-9642
▁войска	-9643
▁зяпнал	-9644
▁кафета	-9645
▁козата	-9646
▁мустак	-9647
▁посрещ	-9648
▁разкра	-9649
▁разпла	-9650
▁робите	-9651
▁рубета	-9652
▁фелдше	-9653
жествува	-9654
ствувате	-9655
ствуващи	-9656
▁Припкам	-9657
▁Юрданчо	-9658
▁братята	-9659
▁годишен	-9660
▁другари	-9661
▁заварил	-9662
▁закрачи	-9663
▁зверски	-9664
▁изтърпи	-9665
▁кънтеше	-9666
▁омацано	-9667
▁отплатя	-9668
▁поканих	-9669
▁прозата	-9670
▁радваше	-9671
▁фелдшер	-9672
▁хлябове	-9673
▁шуртеше	-9674
йствуване	-9675
▁Турчинът	-9676
▁кадифяни	-9677
▁менторът	-9678
▁падането	-9679
▁повдигна	-9680
▁посрещне	-9681
▁разкрача	-9682
▁разплака	-9683
▁случката	-9684
▁смирения	-9685
▁сънищата	-9686
▁хармония	-9687
▁хвърляли	-9688
▁хвърляме	-9689
▁хоризонт	-9690
▁хорската	-9691
▁хранител	-9692
▁хубавата	-9693
▁царуваха	-9694
▁целунаха	-9695
▁цивилиза	-9696
▁цигулари	-9697
▁червения	-9698
▁чернолик	-9699
айна	-9700
знич	-9701
▁Хун	-9702
▁суф	-9703
Райна	-9704
вътре	-9705
гахте	-9706
емите	-9707
еобра	-9708
лонно	-9709
мъния	-9710
мъчен	-9711
нятен	-9712
такси	-9713
унтов	-9714
хтеше	-9715
ънтен	-9716
▁Хунс	-9717
Бунтов	-9718
буждат	-9719
бунтов	-9720
знични	-9721
ложена	-9722
никаво	-9723
▁Вътре	-9724
▁влачи	-9725
▁думат	-9726
▁думаш	-9727
▁кичат	-9728
▁минах	-9729
▁премъ	-9730
▁струи	-9731
▁суфли	-9732
▁влачат	-9733
▁запази	-9734
▁идехте	-9735
▁минаха	-9736
▁обичат	-9737
▁опитен	-9738
▁премъд	-9739
▁светци	-9740
▁тръгне	-9741
еобразен	-9742
жествено	-9743
теникаво	-9744
четирина	-9745
▁Румъния	-9746
▁влачеше	-9747
▁задушен	-9748
▁запазим	-9749
▁запирам	-9750
▁извътре	-9751
▁измъчен	-9752
▁миналия	-9753
▁непотре	-9754
▁пияници	-9755
▁пъхтеше	-9756
▁сложена	-9757
▁тутакси	-9758
▁хвърлил	-9759
▁хвърлих	-9760
▁хвърлиш	-9761
▁хвърчат	-9762
▁честите	-9763
бунтовник	-9764
любопитно	-9765
▁Вътрешна	-9766
▁Гледайте	-9767
▁Пропусне	-9768
▁властите	-9769
▁затънтен	-9770
▁изнамери	-9771
▁наливаше	-9772
▁огнището	-9773
▁предупре	-9774
▁ръкуване	-9775
▁събуждат	-9776
▁създание	-9777
▁читатели	-9778
▁чуването	-9779
▁широката	-9780
▁шишането	-9781
▁шумящата	-9782
Александри	-9783
беждението	-9784
внушителен	-9785
гласнейший	-9786
доволствие	-9787
зглавеното	-9788
йнствената	-9789
колебимото	-9790
кспировата	-9791
лоцветната	-9792
пераментът	-9793
ператорски	-9794
приветливо	-9795
проницаема	-9796
седемдесет	-9797
стовичките	-9798
съвременна	-9799
бява	-9800
летя	-9801
▁Уро	-9802
▁Уче	-9803
▁Учу	-9804
▁ждъ	-9805
бегне	-9806
безче	-9807
винно	-9808
волци	-9809
летни	-9810
летял	-9811
летят	-9812
лувка	-9813
сонин	-9814
щавка	-9815
▁Граф	-9816
▁Разв	-9817
▁Тебе	-9818
▁Урок	-9819
▁агне	-9820
▁бърз	-9821
▁глът	-9822
▁гроз	-9823
▁даул	-9824
▁омръ	-9825
▁плет	-9826
▁поту	-9827
▁риза	-9828
▁трай	-9829
▁умни	-9830
летния	-9831
▁Мисля	-9832
▁бегал	-9833
▁бяхте	-9834
▁гроба	-9835
▁десет	-9836
▁затъм	-9837
▁катед	-9838
▁стени	-9839
▁стиха	-9840
тръбява	-9841
▁Голосе	-9842
▁Заведе	-9843
▁Развръ	-9844
▁агнета	-9845
▁всякой	-9846
▁глътки	-9847
▁играха	-9848
▁лошите	-9849
▁лъжеше	-9850
▁намеси	-9851
▁стигне	-9852
▁строен	-9853
▁стропо	-9854
▁строши	-9855
▁чашите	-9856
▁Невинно	-9857
▁Развръз	-9858
▁Учудена	-9859
▁гощавка	-9860
▁затъмне	-9861
▁избегне	-9862
▁милувка	-9863
▁налетял	-9864
▁обичали	-9865
▁порасли	-9866
▁пораста	-9867
▁потулен	-9868
▁противу	-9869
▁случаен	-9870
▁топурка	-9871
▁третото	-9872
▁тълпата	-9873
▁улиците	-9874
безчестно	-9875
▁Заведете	-9876
▁грозното	-9877
▁свидетел	-9878
▁сполетят	-9879
▁столетни	-9880
▁строполи	-9881
▁юмручета	-9882
творителна	-9883
хотворение	-9884
▁Бабичките	-9885
▁Безмълвна	-9886
▁Бояджията	-9887
▁Бързобегу	-9888
▁Воденчарю	-9889
▁Голосовци	-9890
▁Госпожина	-9891
▁Графинята	-9892
▁Державина	-9893
▁Домашните	-9894
▁Драндабур	-9895
▁Другарите	-9896
▁Дърветата	-9897
▁Изповеда̀	-9898
▁Изповядах	-9899
клив	-9900
▁Гин	-9901
▁тъп	-9902
галия	-9903
тливо	-9904
трити	-9905
чужди	-9906
шливо	-9907
▁хубо	-9908
бирани	-9909
бираха	-9910
вгалия	-9911
лечеше	-9912
стриха	-9913
товили	-9914
щането	-9915
▁Гинке	-9916
▁Откра	-9917
▁Пейте	-9918
▁вечна	-9919
▁вярна	-9920
▁глуха	-9921
▁жедни	-9922
▁завет	-9923
▁задни	-9924
▁задръ	-9925
▁кръво	-9926
▁пешак	-9927
▁посму	-9928
▁чудни	-9929
душието	-9930
знатата	-9931
ленчеше	-9932
мешливо	-9933
ркането	-9934
рутливо	-9935
тестата	-9936
честите	-9937
▁дяконе	-9938
▁забави	-9939
▁знайте	-9940
▁набави	-9941
▁нашият	-9942
▁огряла	-9943
▁славно	-9944
▁случаи	-9945
▁слушах	-9946
▁тачеше	-9947
▁узнаеш	-9948
▁хубост	-9949
дничкото	-9950
▁влечеше	-9951
▁гърчеше	-9952
▁затворе	-9953
▁изтрити	-9954
▁кръвожа	-9955
▁писклив	-9956
▁плачеше	-9957
▁посмути	-9958
▁септемв	-9959
▁сиромаш	-9960
▁строгия	-9961
тешествие	-9962
▁Внезапно	-9963
▁Открадни	-9964
▁атестата	-9965
▁внимания	-9966
▁дяконите	-9967
▁забавиха	-9968
▁задрънка	-9969
▁затворен	-9970
▁кавгалия	-9971
▁мотовили	-9972
▁откровен	-9973
▁подадено	-9974
▁почернил	-9975
▁пущането	-9976
▁стълбата	-9977
▁събирани	-9978
▁хленчеше	-9979
▁хубавото	-9980
▁Актьорите	-9981
▁Едничкото	-9982
▁Изтървала	-9983
▁Император	-9984
▁Историята	-9985
▁Кафеджият	-9986
▁Кокошките	-9987
▁Молдовата	-9988
▁Мунчовите	-9989
▁Натанаило	-9990
▁Недковата	-9991
▁Обстоятел	-9992
▁Павлювица	-9993
▁Пандурина	-9994
▁Петербург	-9995
▁Плачущите	-9996
▁Покритото	-9997
▁Постижима	-9998
▁Прелестно	-9999
гоиз	-10000
ъпла	-10001
▁Въп	-10002
▁Тем	-10003
▁юна	-10004
говия	-10005
крепя	-10006
право	-10007
сиите	-10008
цузин	-10009
▁Гаче	-10010
▁Едър	-10011
▁Ласа	-10012
▁Лаят	-10013
▁клет	-10014
▁опас	-10015
влевия	-10016
гледал	-10017
достна	-10018
достта	-10019
казвам	-10020
казват	-10021
ладост	-10022
нуване	-10023
ъпките	-10024
ъплаха	-10025
▁Въпре	-10026
▁Случа	-10027
▁дадем	-10028
▁егоиз	-10029
▁мъчно	-10030
▁прием	-10031
▁чукна	-10032
гледаше	-10033
крепява	-10034
ресиите	-10035
тъпките	-10036
▁Ласаля	-10037
▁Случай	-10038
▁весела	-10039
▁войски	-10040
▁думаше	-10041
▁майски	-10042
▁момите	-10043
▁ногата	-10044
▁общата	-10045
▁отидем	-10046
▁питаме	-10047
▁рогата	-10048
▁румени	-10049
▁стаите	-10050
▁юнашки	-10051
граждаха	-10052
минуване	-10053
радостна	-10054
ранцузин	-10055
▁Въпреки	-10056
▁Младост	-10057
▁Оттатък	-10058
▁гласяха	-10059
▁подават	-10060
▁показва	-10061
▁скромна	-10062
▁скромно	-10063
▁слабото	-10064
▁чергата	-10065
▁Стъпките	-10066
▁доказват	-10067
▁егоизмът	-10068
▁обезумял	-10069
▁опасният	-10070
▁оставяше	-10071
▁питаните	-10072
▁пострада	-10073
▁севлевия	-10074
▁спогледа	-10075
▁съгледал	-10076
▁търговия	-10077
▁укрепява	-10078
▁Огняновия	-10079
▁Притурете	-10080
▁Прозрачни	-10081
▁Разговори	-10082
▁Разказвам	-10083
▁Селямсъза	-10084
▁Тиранията	-10085
▁актьорите	-10086
▁анадолски	-10087
▁антихрист	-10088
▁архангели	-10089
▁астрономи	-10090
▁атмосфера	-10091
▁бабичката	-10092
▁безмълвно	-10093
▁безопасно	-10094
▁безочливо	-10095
▁безпредел	-10096
▁безумство	-10097
▁бележките	-10098
▁бесилници	-10099
пуа	-10100
лошо	-10101
пуня	-10102
слим	-10103
топу	-10104
ужно	-10105
вънли	-10106
довно	-10107
онери	-10108
тежно	-10109
▁Реши	-10110
▁дъне	-10111
▁дъха	-10112
▁къри	-10113
▁къше	-10114
▁лопа	-10115
пуняко	-10116
торжен	-10117
увахме	-10118
▁Излез	-10119
▁Капуа	-10120
▁Нужно	-10121
▁викам	-10122
▁дъска	-10123
▁дъхат	-10124
▁злора	-10125
▁къшей	-10126
▁лукав	-10127
▁обадя	-10128
▁погла	-10129
▁посет	-10130
▁синът	-10131
ловидно	-10132
лонните	-10133
топурка	-10134
▁Звънли	-10135
▁Мислим	-10136
▁Новият	-10137
▁Оръжие	-10138
▁бащина	-10139
▁грабне	-10140
▁дънери	-10141
▁залови	-10142
▁занима	-10143
▁изкове	-10144
▁канапе	-10145
▁кърища	-10146
▁мракът	-10147
▁обнима	-10148
▁открил	-10149
▁планът	-10150
▁придир	-10151
▁сподир	-10152
▁станат	-10153
▁убития	-10154
▁усетят	-10155
▁чудеше	-10156
ъкувахме	-10157
▁злорадо	-10158
▁майките	-10159
▁метежно	-10160
▁останка	-10161
▁пионери	-10162
▁поглади	-10163
▁първата	-10164
▁разумно	-10165
▁редовно	-10166
▁ставало	-10167
▁учените	-10168
▁четмото	-10169
възторжен	-10170
▁веселата	-10171
▁воденици	-10172
▁грешните	-10173
▁занимава	-10174
▁лопатата	-10175
▁обнимаше	-10176
▁папуняко	-10177
▁посетяха	-10178
▁разбирал	-10179
▁Ръкувахме	-10180
▁богатство	-10181
▁братуваше	-10182
▁бързешком	-10183
▁вглъбнати	-10184
▁вересиите	-10185
▁вестникът	-10186
▁вечернята	-10187
▁вечността	-10188
▁веявицата	-10189
▁виждането	-10190
▁вкусовете	-10191
▁влаченето	-10192
▁влизането	-10193
▁внимаваше	-10194
▁воденичен	-10195
▁восточний	-10196
▁враждебно	-10197
▁вторачили	-10198
▁възмужава	-10199
атър	-10200
нтър	-10201
сват	-10202
▁Кир	-10203
ветар	-10204
ймени	-10205
качен	-10206
марка	-10207
стват	-10208
стоях	-10209
тичен	-10210
траки	-10211
траст	-10212
търчо	-10213
чкани	-10214
шават	-10215
▁Архи	-10216
▁сетя	-10217
атърът	-10218
влявам	-10219
енерът	-10220
знават	-10221
знично	-10222
нясват	-10223
роглед	-10224
тската	-10225
▁Порой	-10226
▁Черни	-10227
▁бъдем	-10228
▁бъдех	-10229
▁мачка	-10230
▁метра	-10231
▁прегъ	-10232
▁спира	-10233
▁събла	-10234
▁точен	-10235
▁тъмне	-10236
вишават	-10237
растват	-10238
страшно	-10239
тамарка	-10240
▁Зададе	-10241
▁Оттука	-10242
▁Птичен	-10243
▁Стаята	-10244
▁възтър	-10245
▁дъщери	-10246
▁задави	-10247
▁замени	-10248
▁изписа	-10249
▁камъня	-10250
▁клекна	-10251
▁неусет	-10252
▁окачен	-10253
▁отиват	-10254
▁отмени	-10255
▁познал	-10256
▁придру	-10257
▁цветар	-10258
▁център	-10259
лтамарка	-10260
нийската	-10261
▁Петраки	-10262
▁Петърчо	-10263
▁Старата	-10264
▁Фенерът	-10265
▁българи	-10266
▁върхове	-10267
▁заплаче	-10268
▁маската	-10269
▁потънал	-10270
▁почтено	-10271
▁престол	-10272
▁продаде	-10273
▁сеймени	-10274
▁тъмници	-10275
▁целувам	-10276
▁Архимеда	-10277
▁Престоях	-10278
▁Театърът	-10279
▁детската	-10280
▁изписаха	-10281
▁контраст	-10282
▁мироглед	-10283
▁молниите	-10284
▁неусетно	-10285
▁смачкани	-10286
▁тъмнееха	-10287
здравлявам	-10288
▁Трапезата	-10289
▁възприеме	-10290
▁възторжен	-10291
▁вълнуваше	-10292
▁въставаме	-10293
▁гласетата	-10294
▁глупавата	-10295
▁годежници	-10296
▁големливо	-10297
▁гоненията	-10298
▁горделива	-10299
iva	-10300
ivat	-10301
праз	-10302
шнал	-10303
▁мъд	-10304
▁мях	-10305
разви	-10306
разни	-10307
разсъ	-10308
▁лаге	-10309
▁лаке	-10310
▁лапа	-10311
▁лати	-10312
▁мъжа	-10313
▁чини	-10314
▁чичо	-10315
▁ясни	-10316
знайно	-10317
казано	-10318
празно	-10319
развит	-10320
румене	-10321
сбърка	-10322
▁Vivat	-10323
▁вълна	-10324
▁добле	-10325
▁добри	-10326
▁допит	-10327
▁злото	-10328
▁искал	-10329
▁искат	-10330
▁кипна	-10331
▁лапна	-10332
▁мираз	-10333
▁мъдро	-10334
▁надзо	-10335
▁нераз	-10336
▁обере	-10337
▁пипна	-10338
▁писку	-10339
▁росни	-10340
▁чиста	-10341
▁чичов	-10342
▁чиято	-10343
дарност	-10344
казания	-10345
сницата	-10346
▁булото	-10347
▁дразни	-10348
▁мушнал	-10349
▁надзор	-10350
▁отказа	-10351
▁пипнах	-10352
▁чудеса	-10353
разсъдки	-10354
ърналото	-10355
▁бойното	-10356
▁булката	-10357
▁възложи	-10358
▁гризене	-10359
▁добрини	-10360
▁знамени	-10361
▁облегна	-10362
▁пискуни	-10363
▁скорото	-10364
▁Напразно	-10365
▁загореще	-10366
▁зарумене	-10367
▁лагерите	-10368
▁лапавица	-10369
▁наздраве	-10370
▁сношение	-10371
▁указания	-10372
▁чревоуго	-10373
▁Мунчовата	-10374
▁господари	-10375
▁господаря	-10376
▁госпожите	-10377
▁готически	-10378
▁гробовете	-10379
▁гъдулките	-10380
▁даскаллък	-10381
▁дванайсет	-10382
▁дворското	-10383
▁девойките	-10384
▁девствена	-10385
▁деликатни	-10386
▁джобовете	-10387
▁дипломата	-10388
▁доблестта	-10389
▁добродуши	-10390
▁доверчиво	-10391
▁довършаха	-10392
▁докторица	-10393
▁допитваха	-10394
▁допълняше	-10395
▁духовниче	-10396
▁дървените	-10397
▁едничкото	-10398
▁естествен	-10399
Оооо	-10400
чвам	-10401
▁Бел	-10402
▁бяг	-10403
земна	-10404
кимна	-10405
ломна	-10406
лязла	-10407
пнала	-10408
пчета	-10409
снята	-10410
▁Бежа	-10411
▁Бере	-10412
▁Избу	-10413
▁Изве	-10414
▁Изми	-10415
▁Изра	-10416
▁блед	-10417
▁връв	-10418
▁смък	-10419
▁шари	-10420
▁шаяк	-10421
копчал	-10422
ртувай	-10423
▁Измир	-10424
▁Ровоа	-10425
▁брата	-10426
▁бряст	-10427
▁бягът	-10428
▁бясна	-10429
▁вайка	-10430
▁лаене	-10431
▁месал	-10432
▁споле	-10433
▁спома	-10434
▁тейка	-10435
▁търка	-10436
▁търпи	-10437
▁тършу	-10438
▁узнае	-10439
▁шумна	-10440
роломна	-10441
▁Белчев	-10442
▁Скимна	-10443
▁бледен	-10444
▁влязла	-10445
▁връвта	-10446
▁гърмях	-10447
▁женене	-10448
▁измери	-10449
▁козина	-10450
▁лениво	-10451
▁поимат	-10452
▁разсъд	-10453
▁спогна	-10454
▁спомен	-10455
▁ставам	-10456
▁шарила	-10457
▁Бежанец	-10458
▁Избухна	-10459
▁Ровоами	-10460
▁баснята	-10461
▁доброде	-10462
▁зяпнала	-10463
▁копчета	-10464
▁неземна	-10465
▁сполети	-10466
▁стройно	-10467
▁тревите	-10468
▁трябват	-10469
▁търкаля	-10470
▁тършува	-10471
▁увираше	-10472
▁бледните	-10473
▁вайкания	-10474
▁веселите	-10475
▁зеленина	-10476
▁начнатия	-10477
▁погледва	-10478
▁погледне	-10479
▁погледни	-10480
▁разсъдък	-10481
▁смъкната	-10482
▁трескава	-10483
▁трябвало	-10484
▁хорските	-10485
▁хортувай	-10486
▁Измирлият	-10487
▁вовчоваме	-10488
▁гороломна	-10489
▁госпожата	-10490
▁жестокост	-10491
▁живителен	-10492
▁жълтиците	-10493
▁забавлява	-10494
▁забележил	-10495
▁забележим	-10496
▁забелязва	-10497
▁заветните	-10498
▁загорещен	-10499
нут	-10500
вент	-10501
дств	-10502
▁Пал	-10503
▁вту	-10504
▁гну	-10505
▁ске	-10506
▁шия	-10507
венча	-10508
говор	-10509
гълча	-10510
дници	-10511
дствы	-10512
ловен	-10513
татор	-10514
тация	-10515
тници	-10516
▁Пада	-10517
▁Пара	-10518
▁Рода	-10519
▁авто	-10520
▁осра	-10521
▁успя	-10522
Иванку	-10523
атация	-10524
бичаят	-10525
вителя	-10526
дствый	-10527
рянски	-10528
ървите	-10529
▁Милка	-10530
▁Параш	-10531
▁боеха	-10532
▁булка	-10533
▁вреди	-10534
▁масал	-10535
▁полка	-10536
▁стоим	-10537
▁шумен	-10538
брянски	-10539
гитатор	-10540
първите	-10541
ринчеви	-10542
седници	-10543
сленици	-10544
стински	-10545
▁Въобще	-10546
▁Официа	-10547
▁бабини	-10548
▁близко	-10549
▁втурна	-10550
▁гнусно	-10551
▁задава	-10552
▁запиля	-10553
▁кажете	-10554
▁кажеше	-10555
▁кански	-10556
▁криеше	-10557
▁левент	-10558
▁освете	-10559
▁осрамо	-10560
▁очички	-10561
▁пищови	-10562
▁пожела	-10563
▁скелет	-10564
▁смееха	-10565
▁увенча	-10566
бавителя	-10567
▁Обичаят	-10568
▁Отговор	-10569
▁Палтото	-10570
▁Парашке	-10571
▁изгълча	-10572
▁издание	-10573
▁условен	-10574
беседници	-10575
плоатация	-10576
численици	-10577
▁Калугери	-10578
▁агитатор	-10579
▁бедствый	-10580
▁веселеше	-10581
▁истински	-10582
▁карабина	-10583
▁краставо	-10584
▁осветени	-10585
▁осрамоти	-10586
▁погибнут	-10587
▁съпротив	-10588
сплоатация	-10589
▁Официално	-10590
▁Парашкева	-10591
▁благодари	-10592
▁дебрянски	-10593
▁задницата	-10594
▁задушлива	-10595
▁закискват	-10596
▁заключвам	-10597
▁заключена	-10598
▁законната	-10599
кет	-10600
кян	-10601
маян	-10602
▁Вам	-10603
▁тъж	-10604
виква	-10605
каква	-10606
кваре	-10607
лекет	-10608
лянко	-10609
овете	-10610
▁Вест	-10611
▁Сава	-10612
▁взет	-10613
▁пиян	-10614
▁цепе	-10615
▁цери	-10616
довете	-10617
млекет	-10618
мнасти	-10619
постол	-10620
товете	-10621
цовете	-10622
▁Никак	-10623
▁Смаян	-10624
▁взела	-10625
▁върба	-10626
▁върти	-10627
▁върши	-10628
▁дължи	-10629
▁дюкян	-10630
▁нощни	-10631
▁перга	-10632
▁пътят	-10633
▁трето	-10634
▁тъжни	-10635
йнягово	-10636
стовете	-10637
▁изляха	-10638
▁ковани	-10639
▁лозите	-10640
▁наздра	-10641
▁нощния	-10642
▁отрова	-10643
▁почита	-10644
▁решава	-10645
▁топуза	-10646
▁цепеха	-10647
мнастика	-10648
▁Апостол	-10649
▁Вестник	-10650
▁Никаква	-10651
▁Орлянко	-10652
▁Саваота	-10653
▁грижете	-10654
▁нощният	-10655
▁повиква	-10656
▁покваре	-10657
▁сожжена	-10658
▁срещнах	-10659
▁тайното	-10660
▁дойдохте	-10661
▁закачиха	-10662
▁зидовете	-10663
▁изменява	-10664
▁крайност	-10665
▁мемлекет	-10666
▁наздраво	-10667
▁направиш	-10668
▁оставете	-10669
▁Войнягово	-10670
▁безоръжни	-10671
▁замахване	-10672
▁замислено	-10673
▁замръзнал	-10674
▁запазваше	-10675
▁заплакала	-10676
▁заповедта	-10677
▁заповядай	-10678
▁запрещава	-10679
▁запълниха	-10680
▁запънахме	-10681
▁засвирете	-10682
▁засрамена	-10683
▁затворите	-10684
▁зъркалите	-10685
▁избърбори	-10686
▁извличала	-10687
▁изглеждат	-10688
▁изгубения	-10689
▁изказахте	-10690
▁изкарваха	-10691
▁изкарваше	-10692
▁изкривено	-10693
▁изкуствен	-10694
▁изложение	-10695
▁изместиха	-10696
▁измислици	-10697
▁изнурение	-10698
▁изпитания	-10699
Кон	-10700
гер	-10701
геле	-10702
гели	-10703
леон	-10704
отче	-10705
рещу	-10706
трия	-10707
▁Сед	-10708
▁лев	-10709
емата	-10710
итрия	-10711
проли	-10712
сягай	-10713
терия	-10714
убива	-10715
▁земя	-10716
▁лепа	-10717
▁лете	-10718
▁спят	-10719
▁хала	-10720
▁хаме	-10721
Конста	-10722
Хитрия	-10723
нтерия	-10724
стария	-10725
▁Седмо	-10726
▁Срещу	-10727
▁бурия	-10728
▁падат	-10729
▁сарда	-10730
▁славе	-10731
▁строг	-10732
▁усетя	-10733
▁хаджи	-10734
▁ямата	-10735
гелието	-10736
говорна	-10737
далесто	-10738
рачните	-10739
▁Залата	-10740
▁Онбаши	-10741
▁вадеше	-10742
▁горски	-10743
▁минало	-10744
▁народи	-10745
▁памето	-10746
▁рошава	-10747
▁светне	-10748
▁славею	-10749
▁смутни	-10750
▁трошат	-10751
зрачните	-10752
пролития	-10753
▁Разгеле	-10754
▁антерия	-10755
▁заплата	-10756
▁зачервя	-10757
▁излезем	-10758
▁недоста	-10759
▁пердето	-10760
▁писачът	-10761
▁постига	-10762
▁преведе	-10763
▁приятен	-10764
▁сардана	-10765
▁скришно	-10766
реклонена	-10767
▁ветрогон	-10768
▁излезете	-10769
▁клончето	-10770
▁пресягай	-10771
▁протогер	-10772
▁сговорна	-10773
▁срещнаха	-10774
▁твърдина	-10775
▁хамелеон	-10776
Преклонена	-10777
▁Онбашията	-10778
▁изпитваше	-10779
▁изпокриха	-10780
▁изправено	-10781
▁изправиха	-10782
▁изпразнен	-10783
▁изпращяха	-10784
▁изпълняше	-10785
▁изтопурка	-10786
▁изтрепали	-10787
▁изтръпнал	-10788
▁ингилизин	-10789
▁искреност	-10790
▁испанския	-10791
▁историйки	-10792
▁камбурест	-10793
▁капитанин	-10794
▁катедрата	-10795
▁кичестите	-10796
▁клеветата	-10797
▁клетникът	-10798
▁клисарски	-10799
бус	-10800
фион	-10801
хнат	-10802
▁Вер	-10803
▁вам	-10804
▁вап	-10805
▁ехи	-10806
башии	-10807
кусен	-10808
летка	-10809
лобус	-10810
ричка	-10811
сален	-10812
хнало	-10813
ъхнат	-10814
▁Есен	-10815
▁Изру	-10816
▁Нику	-10817
▁Побу	-10818
▁вали	-10819
▁ваша	-10820
▁дими	-10821
▁диса	-10822
▁есен	-10823
▁кобу	-10824
▁люта	-10825
▁люто	-10826
▁мухи	-10827
▁хлад	-10828
видели	-10829
сносен	-10830
▁Елате	-10831
▁Имаме	-10832
▁Никул	-10833
▁Някои	-10834
▁афион	-10835
▁билет	-10836
▁бъдеш	-10837
▁вапца	-10838
▁виене	-10839
▁група	-10840
▁духна	-10841
▁обяда	-10842
▁расте	-10843
изкусен	-10844
ленчето	-10845
лосален	-10846
навлиза	-10847
пухнало	-10848
рителен	-10849
следени	-10850
ствувал	-10851
умление	-10852
▁блъсна	-10853
▁глобус	-10854
▁дадени	-10855
▁ехидно	-10856
▁казвах	-10857
▁обилен	-10858
▁палата	-10859
▁плащат	-10860
▁повели	-10861
▁Верните	-10862
▁Изрухтя	-10863
▁Побутна	-10864
▁баричка	-10865
▁бурните	-10866
▁жилетка	-10867
▁казвате	-10868
▁казваха	-10869
▁неясния	-10870
▁разорят	-10871
▁слугата	-10872
▁тумчест	-10873
▁хвърляш	-10874
коностаса	-10875
▁Есенната	-10876
▁Никулден	-10877
▁брястове	-10878
▁дисагите	-10879
▁другарин	-10880
▁задъхнат	-10881
▁кобурите	-10882
▁момченце	-10883
▁наслажда	-10884
▁несносен	-10885
▁отчаяние	-10886
▁стихията	-10887
▁членчето	-10888
знаследени	-10889
ствуващето	-10890
▁делибашии	-10891
▁занавлиза	-10892
▁изумление	-10893
▁колосален	-10894
▁комшулуче	-10895
▁кривоокия	-10896
▁кристална	-10897
▁кротостта	-10898
▁крясъчета	-10899
ефе	-10900
зън	-10901
тън	-10902
вран	-10903
ефек	-10904
съду	-10905
▁Гер	-10906
▁нуж	-10907
гване	-10908
жасно	-10909
ранът	-10910
снопо	-10911
тънко	-10912
▁Balk	-10913
▁Весе	-10914
▁усър	-10915
▁хода	-10916
▁ходе	-10917
▁хоро	-10918
▁шепа	-10919
биване	-10920
ванете	-10921
вранма	-10922
ливото	-10923
миване	-10924
ужасно	-10925
ънката	-10926
▁Balka	-10927
▁Весел	-10928
▁Герце	-10929
▁Знаеш	-10930
▁Ивани	-10931
▁болен	-10932
▁всъду	-10933
▁гърка	-10934
▁гърла	-10935
▁обико	-10936
▁свахо	-10937
▁сърба	-10938
▁сърби	-10939
▁тясно	-10940
ефектна	-10941
облазън	-10942
прежени	-10943
тливото	-10944
▁Balkan	-10945
▁Знаеше	-10946
▁Мъката	-10947
▁Хасана	-10948
▁обител	-10949
▁подпре	-10950
▁усърди	-10951
▁ходеха	-10952
▁щураме	-10953
▁Balkans	-10954
▁Герцена	-10955
▁Иванице	-10956
▁Каквото	-10957
▁Хванете	-10958
▁виждаха	-10959
▁изтърва	-10960
▁нужните	-10961
▁песнопо	-10962
▁плачете	-10963
▁първият	-10964
▁сбиване	-10965
▁срещаше	-10966
▁сърбаха	-10967
▁сърната	-10968
▁тиранът	-10969
▁усърдие	-10970
▁Давранма	-10971
▁намерите	-10972
▁предават	-10973
▁премълча	-10974
▁соблазън	-10975
▁Веселбата	-10976
▁Годежници	-10977
▁Незлобиво	-10978
▁ваджийска	-10979
▁загатваха	-10980
▁запустяла	-10981
▁запънката	-10982
▁изсмиване	-10983
▁куностаса	-10984
▁куркането	-10985
▁куфалница	-10986
▁кърджалии	-10987
▁лекарства	-10988
▁лъжливите	-10989
▁маймуната	-10990
▁малейшаго	-10991
▁манастиря	-10992
▁мигновена	-10993
▁мигновени	-10994
▁миловидно	-10995
▁милостиня	-10996
▁минцовете	-10997
▁мирувайте	-10998
▁мирянките	-10999
кун	-11000
ску	-11001
десъ	-11002
куро	-11003
ръфа	-11004
съве	-11005
сяга	-11006
▁псе	-11007
здесъ	-11008
курор	-11009
лчето	-11010
любно	-11011
нятие	-11012
равка	-11013
яният	-11014
▁Русс	-11015
▁идео	-11016
▁изся	-11017
▁свещ	-11018
бичето	-11019
зечето	-11020
киният	-11021
ръфани	-11022
рябват	-11023
саният	-11024
съвест	-11025
сягане	-11026
ъплеха	-11027
▁Шийка	-11028
▁викаш	-11029
▁заплю	-11030
▁запря	-11031
▁изход	-11032
▁краде	-11033
▁кукли	-11034
▁мотив	-11035
▁муску	-11036
▁разли	-11037
▁свеже	-11038
▁свети	-11039
▁смело	-11040
▁смеят	-11041
▁сядат	-11042
▁удара	-11043
▁шарен	-11044
здесъщи	-11045
кунство	-11046
лизваше	-11047
▁вярата	-11048
▁заплюй	-11049
▁запрян	-11050
▁идеоло	-11051
▁идеята	-11052
▁отдолу	-11053
▁светим	-11054
▁синият	-11055
▁струна	-11056
▁трепна	-11057
лисаният	-11058
лушаваше	-11059
▁булчето	-11060
▁дращеше	-11061
▁завежда	-11062
▁идеолог	-11063
▁изсякъл	-11064
▁оръфани	-11065
▁понятие	-11066
▁пъплеха	-11067
▁свежест	-11068
съкрушими	-11069
▁Добичето	-11070
▁Какиният	-11071
▁козечето	-11072
▁наведено	-11073
▁поправка	-11074
▁постъпих	-11075
▁посягане	-11076
▁проклети	-11077
▁прокурор	-11078
▁свещници	-11079
▁способна	-11080
съвестност	-11081
▁Марковица	-11082
▁Русссиана	-11083
▁Слисаният	-11084
▁вездесъщи	-11085
▁крадешком	-11086
▁младостта	-11087
▁многоброй	-11088
▁монотонно	-11089
▁мрачината	-11090
▁мускулест	-11091
▁мъжествен	-11092
▁мъничките	-11093
▁наостриха	-11094
▁направете	-11095
▁направило	-11096
▁направиха	-11097
▁напълнено	-11098
▁напълниха	-11099
дци	-11100
еща	-11101
удя	-11102
чие	-11103
щре	-11104
▁ад	-11105
▁цу	-11106
като	-11107
клии	-11108
ктът	-11109
щрек	-11110
яеща	-11111
ятни	-11112
▁Тоз	-11113
▁ала	-11114
▁вий	-11115
▁вих	-11116
▁виш	-11117
▁тер	-11118
ванче	-11119
дието	-11120
ловит	-11121
ралия	-11122
студя	-11123
▁Сама	-11124
▁бера	-11125
▁вире	-11126
▁прео	-11127
▁разд	-11128
▁тава	-11129
▁тате	-11130
▁терд	-11131
давано	-11132
знание	-11133
▁Актът	-11134
▁адска	-11135
▁вихър	-11136
▁вишне	-11137
▁ловит	-11138
▁можеш	-11139
▁ничие	-11140
▁обрал	-11141
▁преле	-11142
▁приет	-11143
▁скрил	-11144
▁тъмен	-11145
▁цукна	-11146
правият	-11147
стралия	-11148
чадието	-11149
▁Агалар	-11150
▁Докато	-11151
▁Общото	-11152
▁виреят	-11153
▁заекна	-11154
▁изфуча	-11155
▁крадци	-11156
▁люлеки	-11157
▁мислят	-11158
▁намине	-11159
▁нащрек	-11160
▁преодо	-11161
▁сияеща	-11162
▁сукман	-11163
▁терджу	-11164
▁трудил	-11165
▁умилен	-11166
▁четете	-11167
прекъсна	-11168
▁вишнево	-11169
▁доктори	-11170
▁здравия	-11171
▁изстудя	-11172
▁клоните	-11173
▁ловитба	-11174
▁признак	-11175
▁пустите	-11176
▁таласъм	-11177
▁третият	-11178
▁хаванче	-11179
мочадието	-11180
▁поразени	-11181
▁прелести	-11182
▁преодоля	-11183
▁пресипна	-11184
▁сукманче	-11185
▁трепетно	-11186
прекъснато	-11187
▁Австралия	-11188
▁настаниха	-11189
▁настъпила	-11190
▁натрупани	-11191
▁натъпкано	-11192
▁натъпкаха	-11193
▁натъртено	-11194
▁началници	-11195
▁неблагоро	-11196
▁невинните	-11197
▁невинност	-11198
▁невинното	-11199
Мо	-11200
Моя	-11201
сън	-11202
ками	-11203
коми	-11204
рако	-11205
рими	-11206
рони	-11207
▁Баю	-11208
▁адо	-11209
▁аре	-11210
▁еми	-11211
▁изт	-11212
Драко	-11213
дълго	-11214
етото	-11215
можно	-11216
▁Димо	-11217
▁Пове	-11218
▁Стой	-11219
▁дяна	-11220
▁крак	-11221
▁накъ	-11222
▁отсе	-11223
▁пана	-11224
▁чина	-11225
гражда	-11226
лакоми	-11227
лигата	-11228
чаквам	-11229
▁Горко	-11230
▁Хрони	-11231
▁адово	-11232
▁голия	-11233
▁изтла	-11234
▁легне	-11235
▁насън	-11236
▁панаи	-11237
▁поток	-11238
▁прода	-11239
▁смест	-11240
▁хаплю	-11241
римигна	-11242
рлигата	-11243
▁Баювци	-11244
▁анекдо	-11245
▁маками	-11246
▁накъсо	-11247
▁прегра	-11248
▁продал	-11249
▁разума	-11250
възможно	-11251
▁Горкото	-11252
▁Очаквам	-11253
▁арената	-11254
▁камъняк	-11255
▁легнете	-11256
▁отседна	-11257
▁панаири	-11258
▁разпале	-11259
▁сковава	-11260
▁сместят	-11261
чурлигата	-11262
▁Повечето	-11263
▁анекдоти	-11264
▁запъхтян	-11265
▁изтласка	-11266
▁победата	-11267
▁преграда	-11268
▁приетото	-11269
▁светваха	-11270
▁следваше	-11271
▁смешност	-11272
▁съгражда	-11273
▁Хрониката	-11274
▁дърволяка	-11275
▁задължена	-11276
▁изпратили	-11277
▁изпуснаха	-11278
▁изтласкай	-11279
▁народното	-11280
▁натоварен	-11281
▁невярната	-11282
▁недоволен	-11283
▁недоволни	-11284
▁неизбежен	-11285
▁ненадейна	-11286
▁неодолима	-11287
▁неодялана	-11288
▁неотменим	-11289
▁неприятно	-11290
▁несъмнена	-11291
▁неуловима	-11292
▁неутешима	-11293
▁няколкото	-11294
▁обаятелно	-11295
▁обвинение	-11296
▁обезоръжи	-11297
▁обременен	-11298
▁обхваната	-11299
Бо	-11300
Бог	-11301
дня	-11302
луш	-11303
мят	-11304
тят	-11305
гват	-11306
пела	-11307
робе	-11308
слуш	-11309
стой	-11310
ъдня	-11311
▁Агу	-11312
▁Сух	-11313
▁Тръ	-11314
▁кви	-11315
▁клу	-11316
▁рая	-11317
гасни	-11318
гония	-11319
жъдня	-11320
лейте	-11321
▁Агуш	-11322
▁Цига	-11323
▁екте	-11324
▁имах	-11325
▁чедо	-11326
послуш	-11327
скваха	-11328
▁Други	-11329
▁Лалки	-11330
▁безбе	-11331
▁взрях	-11332
▁клупа	-11333
▁модни	-11334
▁обаче	-11335
▁обеси	-11336
жалейте	-11337
жъдняло	-11338
искваха	-11339
▁Минаха	-11340
▁Поробе	-11341
▁агония	-11342
▁доверя	-11343
▁живопи	-11344
▁капела	-11345
▁обстоя	-11346
▁отиваш	-11347
▁пишеше	-11348
▁Другият	-11349
▁Нощеска	-11350
▁довърши	-11351
▁ектения	-11352
▁загасни	-11353
▁звънтят	-11354
▁изхврък	-11355
▁квичеше	-11356
▁оставят	-11357
▁радвате	-11358
▁Тръгнаха	-11359
▁Циганите	-11360
▁безбедно	-11361
▁засрамят	-11362
▁излъгват	-11363
▁очичките	-11364
▁предател	-11365
благороден	-11366
послушница	-11367
▁Лалкината	-11368
▁Пожалейте	-11369
▁живописна	-11370
▁заплашват	-11371
▁изжъдняло	-11372
▁изхвръкне	-11373
▁изчезнаха	-11374
▁неприятни	-11375
▁огорчения	-11376
▁одобрение	-11377
▁означение	-11378
▁окончажем	-11379
▁онбашията	-11380
▁осемдесет	-11381
▁оскърбила	-11382
▁отвлечени	-11383
▁отворения	-11384
▁отговорил	-11385
▁отечество	-11386
▁отколкото	-11387
▁откриваше	-11388
▁откритото	-11389
▁откъснала	-11390
▁отношения	-11391
▁отпъждаше	-11392
▁отрастват	-11393
▁отсрещния	-11394
▁оттеглила	-11395
▁отчайване	-11396
▁охтикалия	-11397
▁очертания	-11398
▁пандурина	-11399
ечи	-11400
клъ	-11401
лев	-11402
нис	-11403
рас	-11404
Сечи	-11405
жило	-11406
йния	-11407
лачи	-11408
мета	-11409
неме	-11410
фнис	-11411
ътно	-11412
юзни	-11413
▁бял	-11414
▁еня	-11415
▁отд	-11416
Плачи	-11417
здено	-11418
маклъ	-11419
тивно	-11420
уляха	-11421
▁дола	-11422
▁доре	-11423
▁сати	-11424
▁сече	-11425
нявани	-11426
▁Еднъж	-11427
▁Името	-11428
▁Мътно	-11429
▁Сегиз	-11430
▁екзар	-11431
▁мърся	-11432
▁наопа	-11433
▁остал	-11434
▁подло	-11435
▁проси	-11436
▁разга	-11437
▁смеех	-11438
▁снеме	-11439
Хайдути	-11440
образие	-11441
раслите	-11442
▁Дафнис	-11443
▁Нистор	-11444
▁долапи	-11445
▁екзарх	-11446
▁измъти	-11447
▁колиби	-11448
▁начуме	-11449
▁отрази	-11450
▁пожара	-11451
▁станах	-11452
▁съюзни	-11453
браздено	-11454
▁Манолев	-11455
▁жъдните	-11456
▁избриса	-11457
▁кръжило	-11458
▁мишница	-11459
▁наопаки	-11460
▁разгара	-11461
▁слухове	-11462
▁съвземе	-11463
▁червени	-11464
маклъците	-11465
тонически	-11466
▁виковете	-11467
▁дорестия	-11468
▁забеляза	-11469
▁закапаха	-11470
▁затуляха	-11471
▁килийния	-11472
▁конашкия	-11473
▁отдръпна	-11474
▁отразили	-11475
▁познавал	-11476
▁предмета	-11477
▁сатирите	-11478
здравиците	-11479
▁Страшният	-11480
▁Чучурчето	-11481
▁засълзени	-11482
▁заточеник	-11483
▁панерчето	-11484
▁пардесюто	-11485
▁парламент	-11486
▁патриотка	-11487
▁перушиняк	-11488
▁петстотин	-11489
▁печалното	-11490
▁пипнешком	-11491
▁пиринчеви	-11492
▁планините	-11493
▁поверение	-11494
▁поводника	-11495
▁повтаряше	-11496
▁повървяха	-11497
▁повърнаха	-11498
▁поганците	-11499
мах	-11500
маш	-11501
мел	-11502
хма	-11503
гада	-11504
гана	-11505
кико	-11506
ланя	-11507
мада	-11508
моря	-11509
рема	-11510
смел	-11511
▁къс	-11512
▁мъм	-11513
▁неж	-11514
▁уто	-11515
далеч	-11516
ланям	-11517
пяван	-11518
тално	-11519
хмаци	-11520
ърнал	-11521
▁бере	-11522
▁дано	-11523
▁кама	-11524
▁орги	-11525
▁отма	-11526
▁того	-11527
голяма	-11528
кикоти	-11529
тагана	-11530
▁Видът	-11531
▁Долът	-11532
▁береш	-11533
▁бърза	-11534
▁дайте	-11535
▁завия	-11536
▁кумаш	-11537
▁оргии	-11538
▁правя	-11539
▁разбе	-11540
▁утопи	-11541
гадайте	-11542
▁Кланям	-11543
▁ахмаци	-11544
▁бързам	-11545
▁жертви	-11546
▁заморя	-11547
▁касапи	-11548
▁кипеше	-11549
▁корема	-11550
▁синове	-11551
▁стомах	-11552
▁тогова	-11553
▁щадеше	-11554
▁главния	-11555
▁грамада	-11556
▁грижата	-11557
▁гръмнал	-11558
▁касапин	-11559
▁мъжкото	-11560
▁мъмреше	-11561
▁обичаят	-11562
▁отмахна	-11563
▁сламено	-11564
▁фатално	-11565
▁ятагана	-11566
▁вратните	-11567
▁възхитен	-11568
▁заскитал	-11569
▁изкикоти	-11570
▁изкушава	-11571
▁огнищата	-11572
▁оставиха	-11573
▁отивахме	-11574
▁първенци	-11575
▁разберат	-11576
▁случайна	-11577
▁утопиите	-11578
▁Девойката	-11579
▁Отгадайте	-11580
▁завърнете	-11581
▁затрепера	-11582
▁кокошките	-11583
▁нежността	-11584
▁обиколена	-11585
▁омръзнаха	-11586
▁погледаме	-11587
▁поглеждах	-11588
▁погълчаха	-11589
▁погълчете	-11590
▁подигната	-11591
▁подмислил	-11592
▁подмислим	-11593
▁поднесоха	-11594
▁подхвърли	-11595
▁пожълтели	-11596
▁позагрубя	-11597
▁позволено	-11598
▁позволеше	-11599
лт	-11600
жка	-11601
зми	-11602
чия	-11603
щий	-11604
ъди	-11605
яжи	-11606
гади	-11607
дире	-11608
кате	-11609
репа	-11610
снал	-11611
▁ков	-11612
▁кои	-11613
▁кол	-11614
▁кот	-11615
▁сив	-11616
▁сих	-11617
вното	-11618
пваха	-11619
юмите	-11620
яжини	-11621
▁впил	-11622
▁изко	-11623
▁изне	-11624
▁кожи	-11625
▁култ	-11626
▁паши	-11627
▁поче	-11628
▁пошу	-11629
▁сира	-11630
▁тост	-11631
лопаше	-11632
▁Влазя	-11633
▁Общий	-11634
▁букви	-11635
▁въртя	-11636
▁жежка	-11637
▁ковче	-11638
▁котки	-11639
▁масич	-11640
▁почет	-11641
▁тайни	-11642
▁товар	-11643
▁угади	-11644
▁чизми	-11645
грамата	-11646
ръпваха	-11647
стюмите	-11648
▁Викате	-11649
▁Сираче	-11650
▁ехтене	-11651
▁зарите	-11652
▁изневе	-11653
▁изпъди	-11654
▁искаме	-11655
▁набеди	-11656
▁надире	-11657
▁начудя	-11658
▁образо	-11659
▁прочия	-11660
▁слезеш	-11661
▁стълби	-11662
▁храбре	-11663
▁черепа	-11664
▁Димитро	-11665
▁Спуснал	-11666
▁изколят	-11667
▁ковчега	-11668
▁образом	-11669
▁паяжини	-11670
▁плашило	-11671
▁попитам	-11672
▁хлопаше	-11673
▁Главното	-11674
▁взаимноу	-11675
▁гъдулари	-11676
▁жалостне	-11677
▁изневери	-11678
▁набедили	-11679
▁оттогава	-11680
▁парахода	-11681
▁разбужда	-11682
▁сирачета	-11683
▁храбреше	-11684
▁жалостней	-11685
▁изневериш	-11686
▁костюмите	-11687
▁масичката	-11688
▁мустаките	-11689
▁пеперудки	-11690
▁позволява	-11691
▁поздравят	-11692
▁позлатени	-11693
▁поколение	-11694
▁ползуваше	-11695
▁поличката	-11696
▁помогнете	-11697
▁помощника	-11698
▁помръзнал	-11699
дея	-11700
кий	-11701
ким	-11702
леп	-11703
руд	-11704
нало	-11705
ртин	-11706
▁тла	-11707
ещият	-11708
лепса	-11709
пеята	-11710
▁Труд	-11711
▁Яким	-11712
▁вида	-11713
▁дръж	-11714
▁изка	-11715
▁маша	-11716
▁седе	-11717
теници	-11718
щитата	-11719
ъкнало	-11720
▁безме	-11721
▁вижте	-11722
▁дълъг	-11723
▁ечеха	-11724
▁изкаш	-11725
▁кълбо	-11726
▁молит	-11727
▁тикна	-11728
▁шушка	-11729
копеята	-11730
ничката	-11731
цателно	-11732
▁Мартин	-11733
▁машала	-11734
▁отбере	-11735
▁откъде	-11736
▁спряно	-11737
▁тласна	-11738
▁хванат	-11739
деятелен	-11740
защитата	-11741
рцателно	-11742
хвърляни	-11743
▁Великий	-11744
▁Пеещият	-11745
▁безмест	-11746
▁бутнало	-11747
▁запалят	-11748
▁заслепи	-11749
▁издаден	-11750
▁изкашля	-11751
▁измежду	-11752
▁легнало	-11753
▁минуват	-11754
▁молепса	-11755
▁неделен	-11756
▁оживено	-11757
▁опалено	-11758
▁потропа	-11759
▁престъп	-11760
ройството	-11761
▁Якимчина	-11762
▁веселият	-11763
▁злобната	-11764
▁известен	-11765
▁попитаха	-11766
▁презираш	-11767
▁проронят	-11768
▁разглася	-11769
▁часовник	-11770
зерцателно	-11771
▁безместни	-11772
▁изпъкнало	-11773
▁молитвата	-11774
▁отгадаете	-11775
▁понамръщи	-11776
▁попаднаха	-11777
▁попъплаха	-11778
▁пораждаше	-11779
▁порицание	-11780
▁посетител	-11781
▁последван	-11782
▁потрябват	-11783
▁поуплашен	-11784
▁поуспокои	-11785
▁поучудено	-11786
▁похвалата	-11787
▁почервеня	-11788
▁почитаема	-11789
▁празнични	-11790
▁пратеници	-11791
▁прегледам	-11792
▁преглътне	-11793
▁прегъваха	-11794
▁прегърнах	-11795
▁предаваше	-11796
▁презираха	-11797
▁прелестна	-11798
▁прелестни	-11799
bl	-11800
pl	-11801
bli	-11802
plu	-11803
гда	-11804
зил	-11805
лда	-11806
мун	-11807
bliq	-11808
plus	-11809
вини	-11810
вост	-11811
соли	-11812
тема	-11813
хаше	-11814
▁гео	-11815
bliqu	-11816
важна	-11817
гдано	-11818
други	-11819
нност	-11820
падна	-11821
толда	-11822
▁plus	-11823
▁Кира	-11824
▁живу	-11825
▁миле	-11826
▁нави	-11827
▁отви	-11828
▁отци	-11829
▁поща	-11830
▁стое	-11831
▁шава	-11832
blique	-11833
гданоз	-11834
жавате	-11835
керата	-11836
натема	-11837
паднем	-11838
ртолда	-11839
тският	-11840
чатана	-11841
шавост	-11842
▁Капка	-11843
▁Силен	-11844
▁венци	-11845
▁взети	-11846
▁гъста	-11847
▁жални	-11848
▁живущ	-11849
▁изсти	-11850
▁милее	-11851
▁небръ	-11852
▁плика	-11853
▁проща	-11854
▁сомун	-11855
▁строй	-11856
ublique	-11857
йсетина	-11858
паднала	-11859
▁навиди	-11860
▁пухаше	-11861
▁ударих	-11862
▁черноо	-11863
publique	-11864
бакерата	-11865
▁Анатема	-11866
▁граница	-11867
▁облекча	-11868
▁подсоли	-11869
▁приведе	-11870
épublique	-11871
▁Бертолда	-11872
▁Детският	-11873
▁Новината	-11874
▁географи	-11875
▁горестно	-11876
▁дивотата	-11877
▁изящните	-11878
▁капитала	-11879
▁лошавини	-11880
▁магданоз	-11881
▁надлъжко	-11882
▁нападнем	-11883
▁небръсна	-11884
▁отнасяше	-11885
▁печатана	-11886
▁позачуди	-11887
▁предадеш	-11888
▁прощаваш	-11889
▁търговец	-11890
▁чернооко	-11891
république	-11892
▁балкански	-11893
▁безпокоен	-11894
▁величието	-11895
▁задоволил	-11896
▁изстиваше	-11897
▁конашката	-11898
▁мършавост	-11899
пав	-11900
ром	-11901
ивна	-11902
▁Вар	-11903
▁отк	-11904
▁сбе	-11905
▁сеч	-11906
калки	-11907
лници	-11908
▁деко	-11909
▁отри	-11910
▁пато	-11911
▁хром	-11912
гавите	-11913
▁Варна	-11914
▁Трево	-11915
▁дребо	-11916
▁запро	-11917
▁откъм	-11918
▁очила	-11919
▁патос	-11920
▁сбери	-11921
▁скрое	-11922
делници	-11923
▁Белите	-11924
▁брътве	-11925
▁веяние	-11926
▁декора	-11927
▁изведе	-11928
▁калпав	-11929
▁наивна	-11930
▁помина	-11931
▁почтен	-11932
▁върбите	-11933
▁гърлата	-11934
▁душевна	-11935
▁дърпаха	-11936
▁изпопла	-11937
▁насреща	-11938
▁посекли	-11939
▁прочети	-11940
▁скроена	-11941
образност	-11942
▁Лудетино	-11943
▁Например	-11944
▁Тревожни	-11945
▁бълнуват	-11946
▁декораци	-11947
▁дреболия	-11948
▁купуваха	-11949
▁лигавите	-11950
▁сестрата	-11951
лканическа	-11952
▁брътвения	-11953
▁глухотата	-11954
▁забележих	-11955
▁забикалки	-11956
▁запродаде	-11957
▁изкривили	-11958
▁наелектри	-11959
▁намръщено	-11960
▁отдругаде	-11961
▁отпаднала	-11962
▁пладнешки	-11963
▁посочваше	-11964
▁предпазил	-11965
▁представя	-11966
▁прелестно	-11967
▁премалели	-11968
▁пременени	-11969
▁преместил	-11970
▁премъдрия	-11971
▁преоблече	-11972
▁препираха	-11973
▁преплитат	-11974
▁пресекнат	-11975
▁пресилено	-11976
▁престанал	-11977
▁прибираха	-11978
▁придирлив	-11979
▁прииждаха	-11980
▁приказвах	-11981
▁примирява	-11982
▁присмивки	-11983
▁присъдата	-11984
▁притворно	-11985
▁притеглят	-11986
▁приятната	-11987
▁провъзгла	-11988
▁продаваха	-11989
▁продънени	-11990
▁продънено	-11991
▁прозаично	-11992
▁променени	-11993
▁променеше	-11994
▁просветен	-11995
▁просълзен	-11996
▁проточили	-11997
▁прочетени	-11998
▁прощаваха	-11999
ево	-12000
рла	-12001
шла	-12002
▁уз	-12003
лига	-12004
луди	-12005
наки	-12006
разд	-12007
тово	-12008
▁Кни	-12009
▁нем	-12010
драва	-12011
твърт	-12012
ходно	-12013
▁имат	-12014
▁коза	-12015
▁лапи	-12016
▁лъчи	-12017
▁мине	-12018
▁пазе	-12019
▁стол	-12020
зходно	-12021
▁Карла	-12022
▁Стари	-12023
▁Янаки	-12024
▁беево	-12025
▁бразд	-12026
▁дошла	-12027
▁лесни	-12028
▁ловци	-12029
▁мокри	-12030
▁повод	-12031
▁разми	-12032
▁сапун	-12033
▁тайна	-12034
▁явиха	-12035
Накарай	-12036
хиевски	-12037
▁венчее	-12038
▁готово	-12039
▁зелена	-12040
▁крехки	-12041
▁немски	-12042
▁отпуск	-12043
▁пазеше	-12044
▁почете	-12045
▁скъсам	-12046
▁стража	-12047
▁убиваш	-12048
▁узряла	-12049
зизходно	-12050
▁Книжата	-12051
▁Писъкът	-12052
▁вятърът	-12053
▁значеше	-12054
▁касаеше	-12055
▁къдрава	-12056
▁мокрите	-12057
▁нейната	-12058
▁никаква	-12059
▁оплаква	-12060
▁покорен	-12061
▁пробуди	-12062
▁разлуди	-12063
▁ставаха	-12064
▁търколи	-12065
▁хлопане	-12066
▁четвърт	-12067
▁Язоновци	-12068
▁ахиевски	-12069
▁браздяха	-12070
▁възвърна	-12071
▁деветини	-12072
▁потъваха	-12073
▁превърна	-12074
▁проникне	-12075
▁размирен	-12076
▁царуваше	-12077
▁чучулига	-12078
▁Крилатият	-12079
▁закриляше	-12080
▁изпречиха	-12081
▁попитайте	-12082
▁пътувания	-12083
▁работници	-12084
▁разбирате	-12085
▁разбойник	-12086
▁разбудени	-12087
▁разбудено	-12088
▁развилнея	-12089
▁развръзка	-12090
▁развържем	-12091
▁развързва	-12092
▁разговоря	-12093
▁раздадоха	-12094
▁разделяше	-12095
▁разиграят	-12096
▁размениха	-12097
▁разменяха	-12098
▁разпалени	-12099
бож	-12100
вла	-12101
лби	-12102
лма	-12103
ъпо	-12104
дава	-12105
кома	-12106
тива	-12107
ъпот	-12108
▁Поп	-12109
▁Чак	-12110
▁аро	-12111
▁дам	-12112
▁идо	-12113
▁оле	-12114
влади	-12115
ечета	-12116
лмази	-12117
лодия	-12118
▁зане	-12119
▁мраз	-12120
▁неза	-12121
▁обси	-12122
Мечета	-12123
божник	-12124
зотива	-12125
комаха	-12126
красни	-12127
▁Шъпот	-12128
▁долни	-12129
▁жалби	-12130
▁идоли	-12131
▁лунно	-12132
▁минеш	-12133
▁преки	-12134
▁речка	-12135
▁спуща	-12136
▁храна	-12137
▁цвете	-12138
▁щяхте	-12139
мовлади	-12140
телният	-12141
▁Лицата	-12142
▁аромат	-12143
▁берете	-12144
▁брояха	-12145
▁връзка	-12146
▁грабят	-12147
▁заболя	-12148
▁занемя	-12149
▁мълния	-12150
▁обсипа	-12151
▁олекна	-12152
▁покаже	-12153
▁смукна	-12154
▁ялмази	-12155
разотива	-12156
ремената	-12157
▁Турчата	-12158
▁бесилка	-12159
▁дървото	-12160
▁жалкото	-12161
▁жестока	-12162
▁клюмаше	-12163
▁мелодия	-12164
▁печалба	-12165
▁премина	-12166
▁спущаха	-12167
комахания	-12168
▁Четирите	-12169
▁блясъкът	-12170
▁заридава	-12171
▁застигна	-12172
▁зелената	-12173
▁олекнала	-12174
▁разбудят	-12175
мучениците	-12176
▁Времената	-12177
▁Прекрасни	-12178
▁безбожник	-12179
▁домовлади	-12180
▁изказваха	-12181
▁пернатата	-12182
▁прохладна	-12183
▁разкопчал	-12184
▁разположи	-12185
▁разправят	-12186
▁разпъхтян	-12187
▁разсипали	-12188
▁разстроен	-12189
▁разсъдлив	-12190
▁разсърден	-12191
▁ревнители	-12192
▁революции	-12193
▁репетиция	-12194
▁рицарство	-12195
▁робството	-12196
▁родолюбец	-12197
▁родолюбци	-12198
▁ръчичките	-12199
̀,	-12200
От	-12201
деи	-12202
▁Св	-12203
Отче	-12204
виха	-12205
душа	-12206
твим	-12207
▁Коя	-12208
Браво	-12209
брана	-12210
залан	-12211
нисти	-12212
▁дори	-12213
▁разс	-12214
▁твои	-12215
вините	-12216
мякова	-12217
ческия	-12218
▁Рипси	-12219
▁алени	-12220
▁вълни	-12221
▁заблъ	-12222
▁какви	-12223
▁науки	-12224
▁удуша	-12225
▁хайде	-12226
▁чиниш	-12227
омякова	-12228
шинисти	-12229
▁Готвим	-12230
▁Негово	-12231
▁замъти	-12232
▁злодеи	-12233
▁прибра	-12234
▁разсмя	-12235
▁самото	-12236
▁чуваше	-12237
▁Бозалан	-12238
▁безцвет	-12239
▁бостани	-12240
▁завъртя	-12241
▁интриги	-12242
▁космата	-12243
▁кълнеше	-12244
▁легенда	-12245
▁мечешка	-12246
▁отбрана	-12247
▁покачих	-12248
▁пусната	-12249
▁Плясъкът	-12250
▁Предните	-12251
▁Рипсимия	-12252
▁Хомякова	-12253
▁заблъска	-12254
▁замътило	-12255
▁игуменка	-12256
▁изменили	-12257
▁отбираше	-12258
▁проявиха	-12259
▁случайни	-12260
▁сражение	-12261
▁троянска	-12262
▁Кривините	-12263
▁безцветни	-12264
▁връстници	-12265
▁запознаят	-12266
▁запъхтели	-12267
▁куршумите	-12268
▁машинисти	-12269
▁наумяваше	-12270
▁самолюбие	-12271
▁самотията	-12272
▁сближават	-12273
▁светлинка	-12274
▁свободата	-12275
▁свързваше	-12276
▁седешката	-12277
▁сиромашки	-12278
▁сиромашта	-12279
▁сключваше	-12280
▁смутовете	-12281
▁смущаваше	-12282
▁снишаваше	-12283
▁спицерина	-12284
▁сподирват	-12285
▁спомагаха	-12286
▁стиховете	-12287
▁стоението	-12288
▁странност	-12289
▁странното	-12290
▁страхотии	-12291
▁стройните	-12292
▁строшване	-12293
▁стръмните	-12294
▁суфлираше	-12295
▁съблачаше	-12296
▁съблечена	-12297
▁съпрежени	-12298
▁течението	-12299
ec	-12300
▁d	-12301
nec	-12302
вон	-12303
кта	-12304
мки	-12305
▁de	-12306
▁зъ	-12307
ъкне	-12308
▁des	-12309
▁nec	-12310
▁всу	-12311
▁зъб	-12312
вието	-12313
ктава	-12314
ленен	-12315
натат	-12316
рсъзи	-12317
шкани	-12318
▁всуе	-12319
▁гора	-12320
▁грош	-12321
▁затъ	-12322
▁звон	-12323
▁кипе	-12324
▁неки	-12325
▁одеж	-12326
▁щяла	-12327
гладна	-12328
лезено	-12329
нататъ	-12330
пленен	-12331
▁бурни	-12332
▁ведри	-12333
▁гъкне	-12334
▁мързе	-12335
▁никак	-12336
▁стада	-12337
лицията	-12338
мокриха	-12339
торение	-12340
тъкмиха	-12341
▁всуета	-12342
▁втория	-12343
▁вълкът	-12344
▁грошче	-12345
▁емекси	-12346
▁затъни	-12347
▁кларне	-12348
▁ледено	-12349
▁махала	-12350
▁некипе	-12351
▁огрени	-12352
▁одежди	-12353
▁октава	-12354
▁сламки	-12355
▁сперма	-12356
▁течеше	-12357
▁туряли	-12358
▁цигара	-12359
влечение	-12360
▁Смилете	-12361
▁Таласъм	-12362
▁Харсъзи	-12363
▁ведрина	-12364
▁глезено	-12365
▁избъбли	-12366
▁килийка	-12367
▁кипение	-12368
▁кларнет	-12369
▁клатеше	-12370
▁лаврите	-12371
▁нощната	-12372
▁облачно	-12373
▁обръщал	-12374
▁отваряш	-12375
▁поклона	-12376
▁скотска	-12377
▁случило	-12378
▁стигаше	-12379
▁телеско	-12380
▁търкаше	-12381
▁Станчеви	-12382
▁двуцевна	-12383
▁завинаги	-12384
▁завърнал	-12385
▁изминаха	-12386
▁местност	-12387
▁некипели	-12388
▁повърнах	-12389
▁поданици	-12390
▁поставим	-12391
▁разпозна	-12392
▁телескоп	-12393
▁учението	-12394
▁Полицията	-12395
▁докторска	-12396
▁завехнаха	-12397
▁захванати	-12398
▁измокриха	-12399
ga	-12400
Ве	-12401
рм	-12402
gar	-12403
Век	-12404
ате	-12405
кне	-12406
рди	-12407
яве	-12408
gari	-12409
Тате	-12410
лина	-12411
миди	-12412
фидо	-12413
▁рог	-12414
▁фра	-12415
garie	-12416
кация	-12417
лкове	-12418
мфидо	-12419
посва	-12420
потът	-12421
рмува	-12422
▁Брат	-12423
▁мизе	-12424
▁пече	-12425
▁свеж	-12426
▁учил	-12427
▁чука	-12428
ремиди	-12429
▁Братя	-12430
▁Вечно	-12431
▁буйни	-12432
▁глина	-12433
▁наяве	-12434
▁никне	-12435
▁руйни	-12436
▁ръгне	-12437
▁фраза	-12438
мфидора	-12439
рмуване	-12440
фикация	-12441
▁душеше	-12442
▁качете	-12443
▁лудост	-12444
▁мизери	-12445
▁обраха	-12446
▁очаква	-12447
▁печеля	-12448
▁предиз	-12449
▁ризите	-12450
▁стомна	-12451
▁събрал	-12452
▁Мохамед	-12453
▁Пуснаха	-12454
▁втелява	-12455
▁вярваха	-12456
▁заварди	-12457
▁заплака	-12458
▁златото	-12459
▁кроткия	-12460
▁невидим	-12461
▁отхрана	-12462
▁полкове	-12463
▁ропотът	-12464
▁сливаше	-12465
▁сълзици	-12466
▁типосва	-12467
▁уплаших	-12468
▁хвърлим	-12469
стинският	-12470
▁Bulgarie	-12471
▁Грешката	-12472
▁вътрешно	-12473
▁керемиди	-12474
▁краищата	-12475
стификация	-12476
▁Нимфидора	-12477
▁багреница	-12478
▁бълнувала	-12479
▁годишните	-12480
▁избърбука	-12481
▁изпушкани	-12482
▁любопитна	-12483
▁мизерията	-12484
▁оттикваше	-12485
▁пошушваше	-12486
▁разливаха	-12487
▁тиранията	-12488
▁тогавашно	-12489
▁топуркане	-12490
▁точността	-12491
▁треволяка	-12492
▁трендафил	-12493
▁трепереха	-12494
▁треперлив	-12495
▁труповете	-12496
▁турецкаго	-12497
▁тържестве	-12498
▁убеждение	-12499
ее	-12500
Мъл	-12501
веч	-12502
дак	-12503
деб	-12504
уши	-12505
чеб	-12506
чии	-12507
vive	-12508
лака	-12509
цуна	-12510
▁Бог	-12511
▁пух	-12512
Мълчи	-12513
ждото	-12514
ляват	-12515
мрете	-12516
рлава	-12517
▁vive	-12518
▁Тази	-12519
▁бира	-12520
▁моля	-12521
▁нахо	-12522
▁отми	-12523
▁пота	-12524
▁съси	-12525
ееджии	-12526
жанеца	-12527
чебник	-12528
▁Запри	-12529
▁всяко	-12530
▁гивеч	-12531
▁насле	-12532
▁обвит	-12533
▁опази	-12534
▁печат	-12535
▁потап	-12536
▁припа	-12537
▁разле	-12538
▁съдеб	-12539
▁чудак	-12540
▁Гечмиш	-12541
▁запуши	-12542
▁златни	-12543
▁значат	-12544
▁клюмна	-12545
▁муцуна	-12546
▁наслед	-12547
▁отмине	-12548
▁предам	-12549
▁сънува	-12550
▁тавана	-12551
▁туряла	-12552
▁шестак	-12553
▁Драмата	-12554
▁Чуждото	-12555
▁избиран	-12556
▁извикай	-12557
▁измрете	-12558
▁изплака	-12559
▁нахожда	-12560
▁обращен	-12561
▁отрязал	-12562
▁познаят	-12563
▁припада	-12564
▁пуснете	-12565
▁разлепя	-12566
▁чорлава	-12567
▁Сутринта	-12568
▁бежанеца	-12569
▁изясниха	-12570
▁лечебник	-12571
▁наклопва	-12572
▁обращены	-12573
▁осъждаха	-12574
▁печалния	-12575
▁потапяха	-12576
▁презряха	-12577
▁приятеля	-12578
▁разлепям	-12579
▁смиляват	-12580
▁съсипани	-12581
▁трезвата	-12582
▁турският	-12583
▁занаятчии	-12584
▁изчервеня	-12585
▁нахождаме	-12586
▁обращеным	-12587
▁празнично	-12588
▁пукнатото	-12589
▁семинария	-12590
▁съдебната	-12591
▁убеждения	-12592
▁убиването	-12593
▁уверяваше	-12594
▁угризения	-12595
▁узнавачка	-12596
▁уплашване	-12597
▁употребим	-12598
▁усамотена	-12599
ис	-12600
ок	-12601
сад	-12602
▁вк	-12603
зета	-12604
лико	-12605
нага	-12606
неок	-12607
ряко	-12608
рята	-12609
фета	-12610
вната	-12611
мовци	-12612
рката	-12613
рякор	-12614
▁Имам	-12615
▁Мина	-12616
▁вити	-12617
▁изис	-12618
▁прищ	-12619
▁смел	-12620
▁сноп	-12621
велико	-12622
кнахме	-12623
норята	-12624
садник	-12625
▁Моята	-12626
▁вкрат	-12627
▁граби	-12628
▁левия	-12629
▁негов	-12630
▁препи	-12631
▁снага	-12632
▁Плачът	-12633
▁бръмба	-12634
▁възтъм	-12635
▁героят	-12636
▁запина	-12637
▁здраво	-12638
▁мазник	-12639
▁околно	-12640
▁прякор	-12641
▁синеок	-12642
▁явната	-12643
▁Ганчово	-12644
▁Пусната	-12645
▁Свобода	-12646
▁бръмбар	-12647
▁вкратце	-12648
▁годишна	-12649
▁изкусна	-12650
▁каяфета	-12651
▁научила	-12652
▁подирил	-12653
▁прикрие	-12654
▁простят	-12655
▁ранната	-12656
▁томовци	-12657
▁тъмнини	-12658
▁тънкото	-12659
▁умислен	-12660
роглавеца	-12661
▁другарят	-12662
▁женорята	-12663
▁направят	-12664
▁неприбра	-12665
▁нерязана	-12666
▁превзета	-12667
▁прегради	-12668
▁препирни	-12669
▁прищъпна	-12670
бездушният	-12671
▁Пуснатата	-12672
▁воденчари	-12673
▁запинания	-12674
▁извикайте	-12675
▁изискваше	-12676
▁облизваше	-12677
▁околности	-12678
▁разсадник	-12679
▁слугуваше	-12680
▁усмихваха	-12681
▁усмихната	-12682
▁устрелиха	-12683
▁утринната	-12684
▁учениците	-12685
▁фарфорова	-12686
▁фаталност	-12687
▁философия	-12688
▁хайдутите	-12689
▁хлевоуста	-12690
▁храненица	-12691
▁цвъркания	-12692
▁целокупен	-12693
▁цървулите	-12694
▁чардаците	-12695
▁чекмаклии	-12696
▁чемширите	-12697
▁червенина	-12698
▁червените	-12699
зъ	-12700
Пои	-12701
вра	-12702
▁пя	-12703
вказ	-12704
зъка	-12705
▁Кра	-12706
йсети	-12707
кната	-12708
нична	-12709
▁Зъби	-12710
▁ката	-12711
▁отза	-12712
▁режи	-12713
▁сабя	-12714
Поиска	-12715
дените	-12716
▁Което	-12717
▁Крака	-12718
▁Преби	-12719
▁замък	-12720
▁злоба	-12721
▁монах	-12722
▁нокти	-12723
▁питаш	-12724
▁поема	-12725
▁разво	-12726
▁седен	-12727
▁хлапа	-12728
Поискал	-12729
монична	-12730
▁Кавказ	-12731
▁Прочее	-12732
▁Сигфри	-12733
▁езикът	-12734
▁зяпаше	-12735
▁казало	-12736
▁минала	-12737
▁мозъка	-12738
▁отзаде	-12739
▁отидох	-12740
▁пъстър	-12741
▁пяната	-12742
▁стягай	-12743
▁сядаше	-12744
званието	-12745
нтинопол	-12746
▁Сигфрид	-12747
▁Следвай	-12748
▁всекиму	-12749
▁градове	-12750
▁дръпнах	-12751
▁калевра	-12752
▁катасти	-12753
▁паметта	-12754
▁работил	-12755
▁скръбна	-12756
▁спомена	-12757
▁тефтеря	-12758
▁тикната	-12759
▁убиваха	-12760
▁хлапаци	-12761
▁черното	-12762
нтинополь	-12763
▁Пребийте	-12764
▁двайсети	-12765
▁залепена	-12766
▁затрудни	-12767
▁мръсното	-12768
▁отвратки	-12769
▁полиелей	-12770
▁страстен	-12771
▁струваше	-12772
▁топорите	-12773
▁Марковата	-12774
▁демонична	-12775
▁катастима	-12776
▁митарства	-12777
▁неминуема	-12778
▁непробива	-12779
▁обидените	-12780
▁отвсякъде	-12781
▁поддадоха	-12782
▁развонява	-12783
▁седенките	-12784
▁черковния	-12785
▁четворица	-12786
▁чиновници	-12787
▁чорбаджия	-12788
▁чувствата	-12789
▁чудновати	-12790
▁чужденеца	-12791
▁чучуркаха	-12792
▁чучурчето	-12793
▁шпионинът	-12794
▁шумливата	-12795
▁шутливото	-12796
▁щурмуване	-12797
▁язвително	-12798
▁яростното	-12799
Аз	-12800
Ла	-12801
ах	-12802
Рус	-12803
лук	-12804
Лало	-12805
бота	-12806
всич	-12807
клук	-12808
ляза	-12809
целя	-12810
▁Дъл	-12811
▁иго	-12812
▁юно	-12813
грами	-12814
лязат	-12815
ският	-12816
стари	-12817
▁Пиши	-12818
▁Попа	-12819
▁Сара	-12820
▁дъно	-12821
▁нама	-12822
▁прим	-12823
▁тона	-12824
всичко	-12825
целяло	-12826
чувано	-12827
ълмени	-12828
▁дириш	-12829
▁дотам	-12830
▁ораку	-12831
▁помни	-12832
▁съдби	-12833
▁юноше	-12834
Руссиан	-12835
дчество	-12836
старили	-12837
телните	-12838
щешните	-12839
▁Боклук	-12840
▁богата	-12841
▁викаха	-12842
▁влязат	-12843
▁добави	-12844
▁канеше	-12845
▁мечето	-12846
▁намаже	-12847
▁невиди	-12848
▁падане	-12849
▁падаше	-12850
▁пламък	-12851
▁седяха	-12852
▁слабия	-12853
▁събота	-12854
рателния	-12855
▁Австрия	-12856
▁Другата	-12857
▁Дълбоко	-12858
▁Саранов	-12859
▁връщаше	-12860
▁злобата	-12861
▁издигне	-12862
▁искрена	-12863
▁лъскава	-12864
▁оцеляло	-12865
▁стисках	-12866
▁утихнал	-12867
▁честити	-12868
▁Женският	-12869
▁Попаднал	-12870
▁Проклама	-12871
▁известия	-12872
▁издигнат	-12873
▁невидима	-12874
▁нечувано	-12875
▁обърнати	-12876
▁оракулът	-12877
▁остарява	-12878
▁пламенни	-12879
▁прибрала	-12880
▁примката	-12881
▁проблеск	-12882
▁съобщава	-12883
▁фантазия	-12884
дирателния	-12885
згодишната	-12886
▁Нощешните	-12887
▁барутливо	-12888
▁застарили	-12889
▁зодчество	-12890
▁изхълмени	-12891
▁поникнали	-12892
▁съдбините	-12893
▁телеграми	-12894
великодушно	-12895
енергически	-12896
интересното	-12897
любопитната	-12898
любопитните	-12899
Чу	-12900
ан	-12901
лос	-12902
▁уд	-12903
нели	-12904
стка	-12905
ървя	-12906
▁Мой	-12907
▁бос	-12908
▁вир	-12909
▁обу	-12910
▁оки	-12911
▁чух	-12912
Чуден	-12913
брави	-12914
сване	-12915
▁Млад	-12916
▁бучи	-12917
▁дебе	-12918
▁ерфе	-12919
▁качу	-12920
▁окич	-12921
▁руса	-12922
▁сено	-12923
▁удря	-12924
ботене	-12925
бравих	-12926
венели	-12927
зостта	-12928
тистка	-12929
▁Значи	-12930
▁Речта	-12931
▁Силно	-12932
▁защит	-12933
▁калят	-12934
▁мляко	-12935
▁обуча	-12936
▁полза	-12937
▁тънък	-12938
ледното	-12939
ървяват	-12940
▁Стефан	-12941
▁влажни	-12942
▁връхна	-12943
▁дебели	-12944
▁нарани	-12945
▁осветя	-12946
▁разпна	-12947
▁тонове	-12948
▁уличен	-12949
▁черков	-12950
▁Всякога	-12951
▁Малката	-12952
▁бучиниш	-12953
▁действи	-12954
▁играхме	-12955
▁критики	-12956
▁наранил	-12957
▁побърза	-12958
▁подобни	-12959
▁прекара	-12960
▁стръкче	-12961
Избягване	-12962
▁Бледното	-12963
▁Всичкото	-12964
▁Забравих	-12965
▁Консулос	-12966
▁Учителят	-12967
▁артистка	-12968
▁боботене	-12969
▁ерфенета	-12970
▁задържат	-12971
▁защитник	-12972
▁качуваше	-12973
▁крайното	-12974
▁низостта	-12975
▁окичваха	-12976
▁окования	-12977
▁подръпна	-12978
▁Райнината	-12979
▁намигване	-12980
▁обиколила	-12981
▁обучаваха	-12982
▁танцуваше	-12983
многобройни	-12984
нататъшните	-12985
рушителната	-12986
стмесечното	-12987
страдалната	-12988
фтесакалият	-12989
чувствувани	-12990
▁république	-12991
▁Богоровото	-12992
▁Богородице	-12993
▁Величество	-12994
▁Вратичката	-12995
▁Въстанието	-12996
▁Геновевица	-12997
▁Голосовата	-12998
▁Движението	-12999
Ще	-13000
ох	-13001
хал	-13002
ремя	-13003
тири	-13004
▁Вър	-13005
▁Офе	-13006
▁Уби	-13007
▁Умо	-13008
▁вол	-13009
▁дъж	-13010
▁мас	-13011
▁Вена	-13012
▁Убие	-13013
▁вина	-13014
▁газе	-13015
▁груб	-13016
▁неже	-13017
▁помъ	-13018
▁теат	-13019
онните	-13020
▁Время	-13021
▁Върви	-13022
▁Двата	-13023
▁Нощта	-13024
▁Турец	-13025
▁Умора	-13026
▁бухал	-13027
▁листа	-13028
▁множе	-13029
▁питат	-13030
▁побит	-13031
▁роден	-13032
▁сноши	-13033
▁тежки	-13034
▁чуват	-13035
▁Офелия	-13036
▁Халима	-13037
▁Шийков	-13038
▁бъдеща	-13039
▁газева	-13040
▁горкия	-13041
▁дъждът	-13042
▁живееш	-13043
▁лавица	-13044
▁мършав	-13045
▁нежели	-13046
▁помъчи	-13047
▁потири	-13048
▁светла	-13049
▁светът	-13050
▁способ	-13051
▁Турецко	-13052
▁Убиецът	-13053
▁вилката	-13054
▁влазяли	-13055
▁изпечен	-13056
▁минувам	-13057
▁размеси	-13058
▁театъра	-13059
▁тлъките	-13060
▁трупаха	-13061
▁Турецкое	-13062
▁зарумени	-13063
▁побелели	-13064
▁подменил	-13065
▁събрания	-13066
диционните	-13067
▁забележат	-13068
▁заплетени	-13069
▁изветреят	-13070
▁множество	-13071
▁навалякът	-13072
▁пламвания	-13073
▁разделиха	-13074
▁търговски	-13075
▁Дяконовата	-13076
▁Звънливият	-13077
▁Известията	-13078
▁Изненадата	-13079
▁Истинската	-13080
▁Кафеджиите	-13081
▁Кафеджията	-13082
▁Махмудкини	-13083
▁Мъжеството	-13084
▁Названието	-13085
▁Огняновото	-13086
▁Петковичин	-13087
▁Победители	-13088
▁Погледнете	-13089
▁Позволяваш	-13090
▁Поробените	-13091
▁Последните	-13092
▁Последният	-13093
▁Препирнята	-13094
▁Пропуснете	-13095
▁Птиченцата	-13096
▁Ровоаминия	-13097
▁Севастопол	-13098
▁Седемдесет	-13099
ара	-13100
рис	-13101
шим	-13102
ъст	-13103
юра	-13104
гори	-13105
дния	-13106
жище	-13107
коле	-13108
мнят	-13109
▁Оня	-13110
▁Оти	-13111
дичка	-13112
роден	-13113
търча	-13114
чност	-13115
▁Гюра	-13116
▁Разу	-13117
▁воне	-13118
▁нази	-13119
▁ране	-13120
▁съши	-13121
бежище	-13122
валяха	-13123
жестта	-13124
перени	-13125
полека	-13126
руваше	-13127
▁Борис	-13128
▁Заара	-13129
▁велик	-13130
▁взели	-13131
▁дъхне	-13132
▁писък	-13133
▁плахо	-13134
▁прови	-13135
▁самка	-13136
▁смеся	-13137
▁тумче	-13138
▁тънко	-13139
клинчил	-13140
тителна	-13141
ъстрено	-13142
▁Отиваш	-13143
▁Разумя	-13144
▁Тракия	-13145
▁вонеща	-13146
▁вроден	-13147
▁възкръ	-13148
▁залиси	-13149
▁изгори	-13150
▁клечки	-13151
▁модния	-13152
▁мъките	-13153
▁отлича	-13154
▁сбогом	-13155
▁съшита	-13156
високата	-13157
полуката	-13158
щинското	-13159
▁бузките	-13160
▁залисии	-13161
▁личност	-13162
▁многошу	-13163
▁планини	-13164
▁поднесе	-13165
▁пътници	-13166
▁смилете	-13167
▁стигаме	-13168
▁съдника	-13169
▁цъфтеше	-13170
▁шапката	-13171
▁Михалаке	-13172
▁Отначало	-13173
▁Разумява	-13174
▁Стражата	-13175
▁брадичка	-13176
▁напомнят	-13177
▁началото	-13178
▁неотколе	-13179
▁нощуваше	-13180
▁притърча	-13181
▁раненото	-13182
▁стреснат	-13183
▁стълпове	-13184
▁тежестта	-13185
▁тумчесто	-13186
▁утрепала	-13187
▁Калипския	-13188
▁Сполуката	-13189
▁възкръсне	-13190
▁добруваше	-13191
▁захласнат	-13192
▁изклинчил	-13193
▁излизахме	-13194
▁поклонник	-13195
▁прибежище	-13196
▁разваляха	-13197
▁разперени	-13198
▁Бащинското	-13199
рлу	-13200
чил	-13201
▁сък	-13202
▁хай	-13203
варят	-13204
добро	-13205
мурлу	-13206
умеят	-13207
ълзих	-13208
▁калъ	-13209
▁краж	-13210
▁отпо	-13211
▁пика	-13212
▁поте	-13213
▁рога	-13214
строго	-13215
▁Генка	-13216
▁басни	-13217
▁котка	-13218
▁лъжем	-13219
▁мрази	-13220
▁обида	-13221
▁яхнал	-13222
вително	-13223
мурлуци	-13224
ромната	-13225
▁Нямаше	-13226
▁Сестро	-13227
▁Хвърля	-13228
▁антика	-13229
▁бръмче	-13230
▁гледаш	-13231
▁голата	-13232
▁калъпа	-13233
▁кражба	-13234
▁нараст	-13235
▁обичай	-13236
▁опашки	-13237
▁отгоре	-13238
▁отпоря	-13239
▁пикаят	-13240
▁победи	-13241
▁потери	-13242
▁Третият	-13243
▁Хвърляй	-13244
▁безпоко	-13245
▁заличил	-13246
▁млъкнат	-13247
▁погибел	-13248
▁съгради	-13249
▁увлечен	-13250
▁ученици	-13251
▁целунем	-13252
чевидност	-13253
▁Богорови	-13254
▁бръмчене	-13255
▁народите	-13256
▁разумеят	-13257
▁решаваха	-13258
▁удържаше	-13259
▁ученички	-13260
▁ямурлуци	-13261
▁бунтовски	-13262
▁завърнаха	-13263
▁изповядай	-13264
▁огромната	-13265
▁отговарят	-13266
▁пропаднал	-13267
▁просълзих	-13268
▁русолюбец	-13269
▁страхотия	-13270
▁Каблешкова	-13271
▁Смионовица	-13272
▁Смущението	-13273
▁Соколовото	-13274
▁Стефчовите	-13275
▁Стихотворе	-13276
▁Съчувствен	-13277
▁Учителчето	-13278
▁Хайдутинът	-13279
▁Чужденецът	-13280
▁апатичното	-13281
▁апостолите	-13282
▁балканския	-13283
▁безбурната	-13284
▁бездарност	-13285
▁безделници	-13286
▁безжизнени	-13287
▁безизходно	-13288
▁безобразие	-13289
▁безпокоеше	-13290
▁безполезна	-13291
▁безполезно	-13292
▁безпомощна	-13293
▁безсмислен	-13294
▁безуспешно	-13295
▁благоговее	-13296
▁благодарен	-13297
▁благодарни	-13298
▁благодетел	-13299
бай	-13300
вак	-13301
вих	-13302
зват	-13303
зита	-13304
▁Гър	-13305
▁год	-13306
▁мая	-13307
▁нах	-13308
▁они	-13309
зваха	-13310
човър	-13311
▁бита	-13312
▁бича	-13313
▁купа	-13314
▁меши	-13315
▁стря	-13316
▁тече	-13317
стивих	-13318
тресни	-13319
▁Кажеш	-13320
▁Майка	-13321
▁Новак	-13322
▁бабин	-13323
▁гонел	-13324
▁гълча	-13325
▁имаха	-13326
▁нахъл	-13327
▁неуме	-13328
▁петел	-13329
▁помии	-13330
▁ранен	-13331
▁сведе	-13332
▁слупе	-13333
▁тоста	-13334
човърка	-13335
▁бялата	-13336
▁визита	-13337
▁връзва	-13338
▁делеше	-13339
▁дочете	-13340
▁конско	-13341
▁подлее	-13342
▁раната	-13343
▁слушаш	-13344
сказваха	-13345
▁Гърдите	-13346
▁Първите	-13347
▁Първото	-13348
▁годявка	-13349
▁гълтане	-13350
▁даскали	-13351
▁изгнили	-13352
▁изпейте	-13353
▁комитет	-13354
▁мешинен	-13355
▁невинни	-13356
▁обърнат	-13357
▁свахите	-13358
▁стряска	-13359
човъркани	-13360
▁втрещена	-13361
▁женената	-13362
▁зелените	-13363
▁питането	-13364
▁познавах	-13365
▁поръчаше	-13366
▁потресни	-13367
▁сведения	-13368
▁слупения	-13369
▁шестакът	-13370
▁гърбовете	-13371
▁душманите	-13372
▁изсмуквам	-13373
▁нахълтаха	-13374
▁неуместно	-13375
▁обаянието	-13376
▁облегната	-13377
▁паметници	-13378
▁подкараха	-13379
▁покойният	-13380
▁стряскане	-13381
▁божествена	-13382
▁божествени	-13383
▁братувания	-13384
▁броеницата	-13385
▁брожението	-13386
▁брястовете	-13387
▁букурещкия	-13388
▁бунтовната	-13389
▁българинът	-13390
▁българките	-13391
▁българския	-13392
▁величество	-13393
▁вниманията	-13394
▁воденчарко	-13395
▁водопадите	-13396
▁всемирната	-13397
▁възвишават	-13398
▁въздигнала	-13399
Гено	-13400
лаше	-13401
шене	-13402
▁гно	-13403
▁ето	-13404
търва	-13405
▁Имах	-13406
▁Моят	-13407
▁алко	-13408
▁босо	-13409
▁изсу	-13410
▁ките	-13411
▁осме	-13412
▁реда	-13413
▁шума	-13414
растта	-13415
цетови	-13416
▁Онова	-13417
▁байно	-13418
▁вкова	-13419
▁дните	-13420
▁плача	-13421
▁пчели	-13422
▁родом	-13423
▁турят	-13424
лъчката	-13425
стилаше	-13426
▁Слухът	-13427
▁видимо	-13428
▁видяла	-13429
▁върхът	-13430
▁гнояни	-13431
▁дочака	-13432
▁държим	-13433
▁изложи	-13434
▁изсули	-13435
▁мълние	-13436
▁подвиж	-13437
▁полите	-13438
▁усетим	-13439
▁Консуле	-13440
▁алкоран	-13441
▁бъклица	-13442
▁бясната	-13443
▁казания	-13444
▁китеник	-13445
▁кундури	-13446
▁кучешко	-13447
▁мирянки	-13448
▁мъстите	-13449
▁отчаяни	-13450
▁плашене	-13451
▁светлия	-13452
▁треснат	-13453
▁тъмнина	-13454
▁чудовищ	-13455
рушението	-13456
▁високата	-13457
▁глъчката	-13458
▁климатът	-13459
▁кротувай	-13460
▁кръвнина	-13461
▁мълниени	-13462
▁новините	-13463
▁озърнала	-13464
▁осмеляха	-13465
▁принасят	-13466
▁разтърва	-13467
▁сърдечно	-13468
▁читачата	-13469
Длъжността	-13470
▁Оркестъра	-13471
▁времената	-13472
▁възрастта	-13473
▁вътрешния	-13474
▁застилаше	-13475
▁концепция	-13476
▁поизстина	-13477
▁пъргавата	-13478
▁угощавате	-13479
▁успокоиха	-13480
▁въздишките	-13481
▁възторжено	-13482
▁възтъмната	-13483
▁възчудваше	-13484
▁вълнението	-13485
▁върволякът	-13486
▁гаврътнаха	-13487
▁главичките	-13488
▁гостоприем	-13489
▁графството	-13490
▁действието	-13491
▁декламираш	-13492
▁джавкането	-13493
▁доброволци	-13494
▁добродушие	-13495
▁добродушни	-13496
▁доверяваха	-13497
▁доживяваше	-13498
▁докторовия	-13499
?…	-13500
шече	-13501
ълца	-13502
▁Иди	-13503
носни	-13504
▁дави	-13505
▁нату	-13506
▁сляп	-13507
▁хили	-13508
▁чорт	-13509
волите	-13510
нянско	-13511
▁Хвана	-13512
▁мерне	-13513
▁рядка	-13514
▁свещи	-13515
▁холан	-13516
боносни	-13517
дряваше	-13518
рението	-13519
▁Питаше	-13520
▁Попита	-13521
▁вървиш	-13522
▁дюшече	-13523
▁европе	-13524
▁закони	-13525
▁колеба	-13526
▁копано	-13527
▁мръдне	-13528
▁натиск	-13529
▁натура	-13530
▁правда	-13531
▁примка	-13532
дбоносни	-13533
▁Дойдеше	-13534
▁верните	-13535
▁впрочем	-13536
▁годявки	-13537
▁захълца	-13538
▁листове	-13539
▁начетен	-13540
▁обаждам	-13541
▁отървал	-13542
▁посвети	-13543
▁разгори	-13544
▁сваляна	-13545
▁учителя	-13546
Господине	-13547
бодряваше	-13548
положения	-13549
▁Оттогава	-13550
▁днешните	-13551
▁дрънкане	-13552
▁дяволите	-13553
▁зрението	-13554
▁направим	-13555
▁напрегна	-13556
▁неговите	-13557
▁осталите	-13558
▁отслабна	-13559
▁тенджера	-13560
▁Алафранго	-13561
▁Марковият	-13562
▁Неприятно	-13563
▁Поразията	-13564
▁арестуван	-13565
▁вранянско	-13566
▁знаменита	-13567
▁избягваше	-13568
▁изкарвани	-13569
▁колебание	-13570
▁моравката	-13571
▁подсвирне	-13572
▁пуснатият	-13573
▁Съдбоносни	-13574
▁достойното	-13575
▁драговолно	-13576
▁дрезгавина	-13577
▁дружелюбно	-13578
▁дръгливият	-13579
▁душманларъ	-13580
▁европейски	-13581
▁екзалтиран	-13582
▁ентусиазъм	-13583
▁естествено	-13584
▁животворна	-13585
▁животворно	-13586
▁забележено	-13587
▁заблагоуха	-13588
▁забравихте	-13589
▁заверяваше	-13590
▁завършваше	-13591
▁заглушаван	-13592
▁загнездено	-13593
▁заграждаха	-13594
▁задължават	-13595
▁задължение	-13596
▁заморяване	-13597
▁заплашване	-13598
▁заплашваше	-13599
бади	-13600
ение	-13601
зара	-13602
пред	-13603
рджи	-13604
сада	-13605
сица	-13606
щожи	-13607
ърне	-13608
▁вря	-13609
▁същ	-13610
бедят	-13611
лизам	-13612
мъчно	-13613
около	-13614
рджик	-13615
скаха	-13616
▁Дава	-13617
▁вета	-13618
▁заря	-13619
▁зобе	-13620
▁наел	-13621
▁съня	-13622
мисъла	-13623
нищожи	-13624
▁Обади	-13625
▁далек	-13626
▁место	-13627
▁можал	-13628
▁незна	-13629
▁съзря	-13630
▁унизи	-13631
▁цапна	-13632
▁Влизам	-13633
▁Москва	-13634
▁ближна	-13635
▁вперил	-13636
▁гръцки	-13637
▁делата	-13638
▁досада	-13639
▁морето	-13640
▁обърне	-13641
▁опашка	-13642
▁падаха	-13643
▁пазара	-13644
▁паница	-13645
▁росица	-13646
▁смешно	-13647
предните	-13648
▁Наоколо	-13649
▁Унищожи	-13650
▁анасона	-13651
▁братски	-13652
▁валчест	-13653
▁веждата	-13654
▁врявата	-13655
▁възмути	-13656
▁говорих	-13657
▁духовна	-13658
▁измъкна	-13659
▁молитва	-13660
▁мъгляви	-13661
▁набедят	-13662
▁наказан	-13663
▁намирал	-13664
▁облекло	-13665
▁плещите	-13666
▁разярен	-13667
▁силните	-13668
▁съскаха	-13669
▁уловиха	-13670
▁умиваше	-13671
▁щипския	-13672
▁геройска	-13673
▁замисъла	-13674
▁извинете	-13675
▁клончета	-13676
▁паметник	-13677
▁свенливо	-13678
▁сърцераз	-13679
▁трептещи	-13680
▁Еднаквата	-13681
▁гявурджик	-13682
▁изреждаше	-13683
▁клепачите	-13684
▁нахранила	-13685
▁обвинения	-13686
▁приятелки	-13687
▁приятните	-13688
▁прохладен	-13689
▁тринайсет	-13690
▁възприемам	-13691
▁заразотива	-13692
▁заследваха	-13693
▁заслепяван	-13694
▁затруднили	-13695
▁затъмнелия	-13696
▁зачерняйте	-13697
▁звънливите	-13698
▁зеленясват	-13699
гър	-13700
бита	-13701
рапа	-13702
▁Виж	-13703
▁Доб	-13704
▁Миа	-13705
▁мие	-13706
▁мил	-13707
любия	-13708
▁Чест	-13709
▁бъди	-13710
▁клеп	-13711
▁мига	-13712
▁рамо	-13713
▁топа	-13714
никъде	-13715
▁Миала	-13716
▁Пирот	-13717
▁Чудна	-13718
▁бърдо	-13719
▁вести	-13720
▁грози	-13721
▁дъжда	-13722
▁знаме	-13723
▁значи	-13724
▁пална	-13725
▁пипал	-13726
▁пишат	-13727
▁проби	-13728
▁проля	-13729
▁тигър	-13730
▁умрем	-13731
▁Откога	-13732
▁изпито	-13733
▁катури	-13734
▁комина	-13735
▁любимо	-13736
▁местни	-13737
▁набита	-13738
▁подвиг	-13739
▁състоя	-13740
▁цигаро	-13741
▁човека	-13742
▁чорапа	-13743
ятелност	-13744
▁Доброто	-13745
▁Малкото	-13746
▁бухтене	-13747
▁влашкия	-13748
▁искрено	-13749
▁конците	-13750
▁милваше	-13751
▁навъсен	-13752
▁омразен	-13753
▁оставил	-13754
▁останат	-13755
▁отсреща	-13756
▁похвала	-13757
▁проляла	-13758
▁пушката	-13759
▁създало	-13760
▁Мичовото	-13761
▁Отникъде	-13762
▁Честното	-13763
▁бурените	-13764
▁бученето	-13765
▁заклевам	-13766
▁запалено	-13767
▁изпразня	-13768
▁клепките	-13769
▁клонести	-13770
▁отвлякла	-13771
▁покъртен	-13772
▁състояща	-13773
▁трепетен	-13774
▁трясъкът	-13775
▁честност	-13776
▁Фратювата	-13777
▁завалията	-13778
▁заместиха	-13779
▁изкрещяха	-13780
▁настръхна	-13781
▁преоблека	-13782
▁причината	-13783
▁разговаря	-13784
▁Османовото	-13785
▁бейовицата	-13786
▁деятелност	-13787
▁забележиха	-13788
▁земледелци	-13789
▁злодейства	-13790
▁зложелател	-13791
▁значителна	-13792
▁идилически	-13793
▁избавителя	-13794
▁избликнало	-13795
▁избрисваше	-13796
▁известието	-13797
▁известията	-13798
▁известната	-13799
лих	-13800
▁Же	-13801
▁Ръ	-13802
пощо	-13803
тена	-13804
▁Ала	-13805
▁ада	-13806
▁обг	-13807
▁пих	-13808
▁чех	-13809
жалих	-13810
рците	-13811
стият	-13812
▁баре	-13813
▁долу	-13814
▁жара	-13815
▁излу	-13816
▁лира	-13817
▁личи	-13818
▁лиши	-13819
▁подг	-13820
▁тила	-13821
▁тиха	-13822
гарето	-13823
иншата	-13824
▁бихме	-13825
▁веков	-13826
▁водят	-13827
▁кости	-13828
▁пости	-13829
▁ревеш	-13830
▁сукно	-13831
▁шумни	-13832
▁Жените	-13833
▁Ръката	-13834
▁богато	-13835
▁вещица	-13836
▁виждат	-13837
▁винове	-13838
▁желаят	-13839
▁излупи	-13840
▁казано	-13841
▁мораво	-13842
▁отишли	-13843
▁отмина	-13844
▁съвети	-13845
▁ухилен	-13846
▁флауто	-13847
▁Борците	-13848
▁вековни	-13849
▁виновен	-13850
▁картата	-13851
▁обгърна	-13852
▁оваляни	-13853
▁опасния	-13854
▁понятия	-13855
▁постара	-13856
▁пуснаха	-13857
▁пустият	-13858
▁сбъркал	-13859
▁съжалих	-13860
▁френско	-13861
▁Дядовият	-13862
▁ветрецът	-13863
▁главното	-13864
▁дремливо	-13865
▁извиваше	-13866
▁нагласим	-13867
▁наредена	-13868
▁опасната	-13869
▁подгрява	-13870
▁просеяна	-13871
▁пуховата	-13872
▁трепетни	-13873
▁училищна	-13874
▁хвърлени	-13875
▁цигарето	-13876
долюбивите	-13877
▁избъбраха	-13878
▁непонятен	-13879
▁планински	-13880
▁позлатена	-13881
▁простичко	-13882
▁сколуфите	-13883
▁тържество	-13884
▁Бунтовната	-13885
▁гимнастика	-13886
▁движението	-13887
▁ентусиазма	-13888
▁извънредно	-13889
▁извършихте	-13890
▁изгубената	-13891
▁изключение	-13892
▁излъкатуши	-13893
▁изненадана	-13894
▁изображава	-13895
▁изобразиха	-13896
▁изоставяха	-13897
▁изпаряваше	-13898
▁изписаните	-13899
Ждъ	-13900
бет	-13901
роз	-13902
▁яр	-13903
войн	-13904
ложа	-13905
▁Спи	-13906
▁Щип	-13907
▁век	-13908
▁вещ	-13909
▁мои	-13910
▁мор	-13911
▁рай	-13912
скача	-13913
▁Гроз	-13914
▁Забе	-13915
▁въжа	-13916
▁меча	-13917
▁мече	-13918
▁пасе	-13919
▁паци	-13920
▁саби	-13921
▁табо	-13922
▁Изгна	-13923
▁безче	-13924
▁воден	-13925
▁гонен	-13926
▁дорде	-13927
▁лазур	-13928
▁налей	-13929
▁писал	-13930
▁смаях	-13931
▁табор	-13932
▁чрево	-13933
малките	-13934
▁заложа	-13935
▁косите	-13936
▁пациен	-13937
▁плесен	-13938
▁правил	-13939
▁призма	-13940
▁редове	-13941
▁храбър	-13942
▁червей	-13943
▁Грозния	-13944
▁бурният	-13945
▁горкият	-13946
▁заскача	-13947
▁избираш	-13948
▁килиите	-13949
▁нейното	-13950
▁отивате	-13951
▁порасна	-13952
▁прикова	-13953
▁пушечна	-13954
▁свежият	-13955
▁столица	-13956
▁сухичък	-13957
войнствен	-13958
▁Внезапен	-13959
▁Дженабет	-13960
▁Руссиана	-13961
▁антиката	-13962
▁заваляха	-13963
▁зрителка	-13964
▁кикотене	-13965
▁огряваше	-13966
▁пациента	-13967
▁попаднал	-13968
▁предлага	-13969
▁признало	-13970
▁свързваш	-13971
▁слушайте	-13972
▁стиснаха	-13973
▁съзнание	-13974
дивлението	-13975
▁Арестуван	-13976
▁Погледите	-13977
▁Раздадоха	-13978
▁безчестие	-13979
▁бостаните	-13980
▁осветлена	-13981
▁отпраната	-13982
▁поднасяше	-13983
▁Бунтовните	-13984
▁Забележете	-13985
▁Изгнанието	-13986
▁Разговорът	-13987
▁задрънкаха	-13988
▁изобилието	-13989
▁изпокъсано	-13990
▁изпратихме	-13991
▁изражавала	-13992
▁изскокваха	-13993
▁изтреблени	-13994
▁изтървахте	-13995
▁изчервенял	-13996
▁иконостаса	-13997
▁илюминация	-13998
▁импресиони	-13999
зей	-14000
уща	-14001
щаш	-14002
днах	-14003
ктор	-14004
люда	-14005
▁Взи	-14006
▁Пен	-14007
▁ази	-14008
▁ний	-14009
▁рус	-14010
▁яли	-14011
дител	-14012
телки	-14013
щната	-14014
▁Дали	-14015
▁Мале	-14016
▁кола	-14017
влечем	-14018
гушена	-14019
дината	-14020
доктор	-14021
▁Ангел	-14022
▁Генча	-14023
▁Дайте	-14024
▁Пенка	-14025
▁Тежки	-14026
▁блюда	-14027
▁бягаш	-14028
▁килим	-14029
▁музей	-14030
▁ниски	-14031
▁ореха	-14032
▁сещаш	-14033
▁Взимат	-14034
▁бабата	-14035
▁казала	-14036
▁напуща	-14037
▁никъде	-14038
▁обадим	-14039
▁отреже	-14040
▁полиже	-14041
▁почака	-14042
▁приказ	-14043
▁пример	-14044
▁рамото	-14045
кламирам	-14046
▁Нощната	-14047
▁Руссиан	-14048
▁искрени	-14049
▁метохът	-14050
▁мълвеше	-14051
▁неговия	-14052
▁половин	-14053
▁похвали	-14054
▁родител	-14055
▁сгушена	-14056
▁синджир	-14057
▁хълцаше	-14058
▁Огнянову	-14059
▁Свободни	-14060
▁Спуснаха	-14061
▁господът	-14062
▁дръвчета	-14063
▁заиграха	-14064
▁заревава	-14065
▁извлечем	-14066
▁изказани	-14067
▁оправдае	-14068
▁отговора	-14069
▁отпущаше	-14070
▁партията	-14071
▁приготви	-14072
▁стъклени	-14073
▁Погледнах	-14074
▁градината	-14075
▁зачукваше	-14076
▁кръстихте	-14077
▁опознават	-14078
▁самоубива	-14079
▁французин	-14080
▁язвителни	-14081
▁Иванчовите	-14082
▁Пандуринът	-14083
▁дръгливото	-14084
▁извънреден	-14085
▁изражаваше	-14086
▁калугерско	-14087
▁камъняците	-14088
▁кисканията	-14089
▁кладенчето	-14090
▁клисарката	-14091
▁комитетски	-14092
▁компанията	-14093
▁кривоокият	-14094
▁крушението	-14095
▁латинските	-14096
▁лекомислен	-14097
▁листнатите	-14098
▁медицински	-14099
сой	-14100
▁Ел	-14101
вска	-14102
върш	-14103
един	-14104
клал	-14105
ляки	-14106
▁теб	-14107
▁туй	-14108
▁тух	-14109
върде	-14110
върли	-14111
глеха	-14112
▁Бяха	-14113
▁Елхо	-14114
▁Кара	-14115
▁греш	-14116
▁каша	-14117
▁лъка	-14118
▁общо	-14119
▁тема	-14120
▁увия	-14121
▁усой	-14122
▁учен	-14123
▁хаир	-14124
мяване	-14125
▁Оттам	-14126
▁бърда	-14127
▁джоба	-14128
▁ледни	-14129
▁листе	-14130
▁мъчиш	-14131
▁насто	-14132
▁нийде	-14133
▁тъжат	-14134
▁ходил	-14135
блажена	-14136
влякоха	-14137
станови	-14138
▁Веднъж	-14139
▁Елхово	-14140
▁Залага	-14141
▁Калеко	-14142
▁Накъде	-14143
▁Твърде	-14144
▁женска	-14145
▁извърш	-14146
▁люляки	-14147
▁мълчат	-14148
▁наклал	-14149
▁облада	-14150
▁свиреп	-14151
▁усилие	-14152
▁целуне	-14153
▁чучура	-14154
▁Димитра	-14155
▁Мислите	-14156
▁високия	-14157
▁впиваше	-14158
▁грешник	-14159
▁зелките	-14160
▁пленяха	-14161
▁покойна	-14162
▁прозява	-14163
▁разкаже	-14164
▁смирено	-14165
▁татрази	-14166
▁теглеха	-14167
▁тухлите	-14168
▁Мохамеда	-14169
▁дребните	-14170
▁душевния	-14171
▁захвърли	-14172
▁кладенец	-14173
▁настояха	-14174
▁нравстве	-14175
▁починете	-14176
▁усойност	-14177
▁Предметът	-14178
▁извлякоха	-14179
▁нареждаше	-14180
▁полуделия	-14181
▁предложих	-14182
▁сменявани	-14183
Практически	-14184
▁Обществото	-14185
▁възстанови	-14186
▁извършваха	-14187
▁изкуството	-14188
▁лястовичка	-14189
▁медицинско	-14190
▁меланхолия	-14191
▁мечтателен	-14192
▁минувачите	-14193
▁многошумен	-14194
▁монотонния	-14195
▁мужествено	-14196
▁мъжествено	-14197
▁мълчанието	-14198
▁мързеливия	-14199
Те	-14200
пек	-14201
дути	-14202
рипе	-14203
▁плъ	-14204
жизне	-14205
чудно	-14206
▁бабо	-14207
▁дена	-14208
▁дуел	-14209
▁пиле	-14210
▁пиша	-14211
▁плъх	-14212
▁умра	-14213
нителя	-14214
▁Павли	-14215
▁бедно	-14216
▁безлю	-14217
▁дрипе	-14218
▁задно	-14219
▁кърпа	-14220
▁ласка	-14221
▁лочат	-14222
▁могъл	-14223
▁найде	-14224
▁резки	-14225
▁съдия	-14226
ратката	-14227
снейшая	-14228
▁Виното	-14229
▁барата	-14230
▁бръкна	-14231
▁вземал	-14232
▁длъжен	-14233
▁издути	-14234
▁изпуши	-14235
▁искате	-14236
▁канара	-14237
▁мислех	-14238
▁общото	-14239
▁пламва	-14240
▁помниш	-14241
▁припек	-14242
▁турено	-14243
▁увлече	-14244
▁Третата	-14245
▁дързост	-14246
▁заръчал	-14247
▁изчезна	-14248
▁подобри	-14249
▁старият	-14250
▁студент	-14251
▁сълзите	-14252
жизнените	-14253
▁Кратката	-14254
▁безлюден	-14255
▁възможна	-14256
▁гонителя	-14257
▁гръмнала	-14258
▁издадоха	-14259
▁напосоки	-14260
▁победени	-14261
▁понавъси	-14262
▁принудил	-14263
▁принцеса	-14264
▁приятелю	-14265
▁умствена	-14266
▁безинтере	-14267
▁дрипелите	-14268
▁замъглиха	-14269
▁изразбуди	-14270
▁недоволна	-14271
▁пострадал	-14272
▁предрешен	-14273
▁седжедета	-14274
▁странника	-14275
▁възточният	-14276
▁мъстителен	-14277
▁набраздено	-14278
▁нагощаваха	-14279
▁надвисваше	-14280
▁надвиснали	-14281
▁наздравица	-14282
▁наздравици	-14283
▁наклеветиш	-14284
▁наклонност	-14285
▁намръщения	-14286
▁напрегнаха	-14287
▁напъстрено	-14288
▁нараняване	-14289
▁нарастваше	-14290
▁насмешливо	-14291
▁настояваха	-14292
▁настояваше	-14293
▁настоящата	-14294
▁настроение	-14295
[...]
